{
  "version": "1.0",
  "truncation": null,
  "padding": null,
  "added_tokens": [
    {
      "id": 0,
      "content": "[UNK]",
      "single_word": false,
      "lstrip": false,
      "rstrip": false,
      "normalized": false,
      "special": true
    },
    {
      "id": 1,
      "content": "[CLS]",
      "single_word": false,
      "lstrip": false,
      "rstrip": false,
      "normalized": false,
      "special": true
    },
    {
      "id": 2,
      "content": "[SEP]",
      "single_word": false,
      "lstrip": false,
      "rstrip": false,
      "normalized": false,
      "special": true
    },
    {
      "id": 3,
      "content": "[PAD]",
      "single_word": false,
      "lstrip": false,
      "rstrip": false,
      "normalized": false,
      "special": true
    },
    {
      "id": 4,
      "content": "[MASK]",
      "single_word": false,
      "lstrip": false,
      "rstrip": false,
      "normalized": false,
      "special": true
    }
  ],
  "normalizer": null,
  "pre_tokenizer": {
    "type": "Sequence",
    "pretokenizers": [
      {
        "type": "Whitespace"
      },
      {
        "type": "Punctuation",
        "behavior": "Isolated"
      }
    ]
  },
  "post_processor": {
    "type": "TemplateProcessing",
    "single": [
      {
        "SpecialToken": {
          "id": "[CLS]",
          "type_id": 0
        }
      },
      {
        "Sequence": {
          "id": "A",
          "type_id": 0
        }
      },
      {
        "SpecialToken": {
          "id": "[SEP]",
          "type_id": 0
        }
      }
    ],
    "pair": [
      {
        "SpecialToken": {
          "id": "[CLS]",
          "type_id": 0
        }
      },
      {
        "Sequence": {
          "id": "A",
          "type_id": 0
        }
      },
      {
        "SpecialToken": {
          "id": "[SEP]",
          "type_id": 0
        }
      },
      {
        "Sequence": {
          "id": "B",
          "type_id": 1
        }
      },
      {
        "SpecialToken": {
          "id": "[SEP]",
          "type_id": 1
        }
      }
    ],
    "special_tokens": {
      "[CLS]": {
        "id": "[CLS]",
        "ids": [
          1
        ],
        "tokens": [
          "[CLS]"
        ]
      },
      "[SEP]": {
        "id": "[SEP]",
        "ids": [
          2
        ],
        "tokens": [
          "[SEP]"
        ]
      }
    }
  },
  "decoder": null,
  "model": {
    "type": "BPE",
    "dropout": null,
    "unk_token": "[UNK]",
    "continuing_subword_prefix": null,
    "end_of_word_suffix": null,
    "fuse_unk": false,
    "byte_fallback": false,
    "ignore_merges": false,
    "vocab": {
      "[UNK]": 0,
      "[CLS]": 1,
      "[SEP]": 2,
      "[PAD]": 3,
      "[MASK]": 4,
      "!": 5,
      "\"": 6,
      "#": 7,
      "$": 8,
      "%": 9,
      "&": 10,
      "'": 11,
      "(": 12,
      ")": 13,
      "*": 14,
      "+": 15,
      ",": 16,
      "-": 17,
      ".": 18,
      "/": 19,
      "0": 20,
      "1": 21,
      "2": 22,
      "3": 23,
      "4": 24,
      "5": 25,
      "6": 26,
      "7": 27,
      "8": 28,
      "9": 29,
      ":": 30,
      ";": 31,
      "<": 32,
      "=": 33,
      ">": 34,
      "?": 35,
      "@": 36,
      "A": 37,
      "B": 38,
      "C": 39,
      "D": 40,
      "E": 41,
      "F": 42,
      "G": 43,
      "H": 44,
      "I": 45,
      "J": 46,
      "K": 47,
      "L": 48,
      "M": 49,
      "N": 50,
      "O": 51,
      "P": 52,
      "Q": 53,
      "R": 54,
      "S": 55,
      "T": 56,
      "U": 57,
      "V": 58,
      "W": 59,
      "X": 60,
      "Y": 61,
      "Z": 62,
      "[": 63,
      "\\": 64,
      "]": 65,
      "^": 66,
      "_": 67,
      "`": 68,
      "a": 69,
      "b": 70,
      "c": 71,
      "d": 72,
      "e": 73,
      "f": 74,
      "g": 75,
      "h": 76,
      "i": 77,
      "j": 78,
      "k": 79,
      "l": 80,
      "m": 81,
      "n": 82,
      "o": 83,
      "p": 84,
      "q": 85,
      "r": 86,
      "s": 87,
      "t": 88,
      "u": 89,
      "v": 90,
      "w": 91,
      "x": 92,
      "y": 93,
      "z": 94,
      "{": 95,
      "|": 96,
      "}": 97,
      "~": 98,
      "«": 99,
      "¬": 100,
      "²": 101,
      "³": 102,
      "·": 103,
      "¹": 104,
      "»": 105,
      "×": 106,
      "ʷ": 107,
      "ʸ": 108,
      "ˡ": 109,
      "ˢ": 110,
      "ˣ": 111,
      "̂": 112,
      "Γ": 113,
      "Δ": 114,
      "Θ": 115,
      "Ι": 116,
      "Λ": 117,
      "Π": 118,
      "Σ": 119,
      "Φ": 120,
      "Ψ": 121,
      "Ω": 122,
      "α": 123,
      "β": 124,
      "γ": 125,
      "δ": 126,
      "ε": 127,
      "ζ": 128,
      "η": 129,
      "θ": 130,
      "ι": 131,
      "κ": 132,
      "λ": 133,
      "μ": 134,
      "ν": 135,
      "ξ": 136,
      "π": 137,
      "ρ": 138,
      "σ": 139,
      "τ": 140,
      "υ": 141,
      "φ": 142,
      "χ": 143,
      "ψ": 144,
      "ω": 145,
      "ϕ": 146,
      "ϖ": 147,
      "ᗮ": 148,
      "ᘁ": 149,
      "ᴬ": 150,
      "ᴴ": 151,
      "ᴸ": 152,
      "ᴹ": 153,
      "ᵀ": 154,
      "ᵁ": 155,
      "ᵃ": 156,
      "ᵇ": 157,
      "ᵈ": 158,
      "ᵉ": 159,
      "ᵍ": 160,
      "ᵐ": 161,
      "ᵒ": 162,
      "ᵖ": 163,
      "ᵛ": 164,
      "ᵢ": 165,
      "ᵣ": 166,
      "ᵤ": 167,
      "ᵥ": 168,
      "ᶜ": 169,
      "ᶠ": 170,
      "‖": 171,
      "†": 172,
      "•": 173,
      "′": 174,
      "‹": 175,
      "›": 176,
      "‼": 177,
      "⁄": 178,
      "⁅": 179,
      "⁆": 180,
      "⁰": 181,
      "ⁱ": 182,
      "⁴": 183,
      "⁵": 184,
      "⁶": 185,
      "⁷": 186,
      "⁸": 187,
      "⁹": 188,
      "⁺": 189,
      "⁻": 190,
      "ⁿ": 191,
      "₀": 192,
      "₁": 193,
      "₂": 194,
      "₃": 195,
      "₄": 196,
      "₅": 197,
      "₆": 198,
      "₇": 199,
      "₈": 200,
      "₉": 201,
      "₊": 202,
      "ₐ": 203,
      "ₑ": 204,
      "ₒ": 205,
      "ₓ": 206,
      "ₕ": 207,
      "ₖ": 208,
      "ₗ": 209,
      "ₘ": 210,
      "ₙ": 211,
      "ₚ": 212,
      "ₛ": 213,
      "ₜ": 214,
      "ℂ": 215,
      "ℋ": 216,
      "ℍ": 217,
      "ℐ": 218,
      "ℑ": 219,
      "ℒ": 220,
      "ℓ": 221,
      "ℕ": 222,
      "ℙ": 223,
      "ℚ": 224,
      "ℜ": 225,
      "ℝ": 226,
      "ℤ": 227,
      "ℬ": 228,
      "ℰ": 229,
      "ℱ": 230,
      "ℳ": 231,
      "ℵ": 232,
      "⅟": 233,
      "←": 234,
      "↑": 235,
      "→": 236,
      "↓": 237,
      "↔": 238,
      "↗": 239,
      "↟": 240,
      "↥": 241,
      "↦": 242,
      "↪": 243,
      "↾": 244,
      "↿": 245,
      "⇑": 246,
      "⇒": 247,
      "⇔": 248,
      "⇨": 249,
      "∀": 250,
      "∂": 251,
      "∃": 252,
      "∅": 253,
      "∆": 254,
      "∇": 255,
      "∈": 256,
      "∉": 257,
      "∏": 258,
      "∐": 259,
      "∑": 260,
      "∗": 261,
      "∘": 262,
      "∙": 263,
      "√": 264,
      "∞": 265,
      "∠": 266,
      "∡": 267,
      "∣": 268,
      "∤": 269,
      "∥": 270,
      "∧": 271,
      "∨": 272,
      "∩": 273,
      "∪": 274,
      "∫": 275,
      "∮": 276,
      "∯": 277,
      "∼": 278,
      "≃": 279,
      "≅": 280,
      "≈": 281,
      "≌": 282,
      "≠": 283,
      "≡": 284,
      "≤": 285,
      "≥": 286,
      "≪": 287,
      "≫": 288,
      "≺": 289,
      "≼": 290,
      "⊂": 291,
      "⊆": 292,
      "⊇": 293,
      "⊓": 294,
      "⊔": 295,
      "⊕": 296,
      "⊗": 297,
      "⊙": 298,
      "⊚": 299,
      "⊛": 300,
      "⊞": 301,
      "⊢": 302,
      "⊣": 303,
      "⊤": 304,
      "⊥": 305,
      "⊨": 306,
      "⊻": 307,
      "⊼": 308,
      "⋀": 309,
      "⋂": 310,
      "⋃": 311,
      "⋆": 312,
      "⋈": 313,
      "⋊": 314,
      "⋖": 315,
      "⋙": 316,
      "⋯": 317,
      "⌈": 318,
      "⌉": 319,
      "⌊": 320,
      "⌋": 321,
      "⍟": 322,
      "□": 323,
      "▷": 324,
      "▸": 325,
      "◁": 326,
      "◃": 327,
      "○": 328,
      "◫": 329,
      "♯": 330,
      "✝": 331,
      "✶": 332,
      "⟂": 333,
      "⟦": 334,
      "⟧": 335,
      "⟨": 336,
      "⟩": 337,
      "⟪": 338,
      "⟫": 339,
      "⟮": 340,
      "⟯": 341,
      "⟶": 342,
      "⟹": 343,
      "⤳": 344,
      "⥤": 345,
      "⦃": 346,
      "⦄": 347,
      "⧏": 348,
      "⧸": 349,
      "⨁": 350,
      "⨂": 351,
      "⨅": 352,
      "⨆": 353,
      "⨍": 354,
      "⨯": 355,
      "⨳": 356,
      "⨿": 357,
      "⩿": 358,
      "⬝": 359,
      "￢": 360,
      "𝐞": 361,
      "𝑳": 362,
      "𝑹": 363,
      "𝒄": 364,
      "𝒅": 365,
      "𝒜": 366,
      "𝒞": 367,
      "𝒟": 368,
      "𝒢": 369,
      "𝒪": 370,
      "𝒫": 371,
      "𝒮": 372,
      "𝒯": 373,
      "𝒰": 374,
      "𝒳": 375,
      "𝓐": 376,
      "𝓒": 377,
      "𝓓": 378,
      "𝓕": 379,
      "𝓘": 380,
      "𝓚": 381,
      "𝓜": 382,
      "𝓝": 383,
      "𝓞": 384,
      "𝓟": 385,
      "𝓢": 386,
      "𝓤": 387,
      "𝓥": 388,
      "𝓦": 389,
      "𝔖": 390,
      "𝔗": 391,
      "𝔠": 392,
      "𝔭": 393,
      "𝔸": 394,
      "𝔹": 395,
      "𝔻": 396,
      "𝔼": 397,
      "𝕀": 398,
      "𝕂": 399,
      "𝕄": 400,
      "𝕆": 401,
      "𝕊": 402,
      "𝕋": 403,
      "𝕌": 404,
      "𝕎": 405,
      "𝕜": 406,
      "𝕝": 407,
      "𝖣": 408,
      "𝟙": 409,
      "𝟭": 410,
      "in": 411,
      "pe": 412,
      "ype": 413,
      "Type": 414,
      "st": 415,
      "inst": 416,
      "ar": 417,
      "om": 418,
      "on": 419,
      "nv": 420,
      "nvar": 421,
      "se": 422,
      "or": 423,
      "✝¹": 424,
      "al": 425,
      "ro": 426,
      "le": 427,
      "Se": 428,
      "un": 429,
      "ing": 430,
      "Com": 431,
      "nvar0": 432,
      "to": 433,
      "ca": 434,
      "dd": 435,
      "Comm": 436,
      "case": 437,
      "id": 438,
      "ap": 439,
      "Add": 440,
      "up": 441,
      "er": 442,
      "ce": 443,
      "od": 444,
      "pa": 445,
      "re": 446,
      "me": 447,
      "✝²": 448,
      "AddComm": 449,
      "ul": 450,
      "ule": 451,
      "odule": 452,
      "Sem": 453,
      "ti": 454,
      "ir": 455,
      "Spa": 456,
      "roup": 457,
      "Space": 458,
      "ra": 459,
      "ono": 460,
      "Set": 461,
      "onoid": 462,
      "Fun": 463,
      "ge": 464,
      "Group": 465,
      "Module": 466,
      "ri": 467,
      "map": 468,
      "iring": 469,
      "op": 470,
      "Ring": 471,
      "Semiring": 472,
      "at": 473,
      "Monoid": 474,
      "as": 475,
      "med": 476,
      "ormed": 477,
      "im": 478,
      "✝³": 479,
      "Su": 480,
      "ct": 481,
      "it": 482,
      "fun": 483,
      "AddCommGroup": 484,
      "Sub": 485,
      "lo": 486,
      "Normed": 487,
      "ort": 488,
      "Hom": 489,
      "cal": 490,
      "nvar1": 491,
      "Fin": 492,
      "iv": 493,
      "Mul": 494,
      "bra": 495,
      "gebra": 496,
      "✝⁴": 497,
      "Eq": 498,
      "toFun": 499,
      "com": 500,
      "ble": 501,
      "tion": 502,
      "mk": 503,
      "eg": 504,
      "set": 505,
      "Non": 506,
      "Sort": 507,
      "inv": 508,
      "ine": 509,
      "Top": 510,
      "el": 511,
      "val": 512,
      "Al": 513,
      "sim": 514,
      "mul": 515,
      "AddCommMonoid": 516,
      "log": 517,
      "Is": 518,
      "der": 519,
      "olog": 520,
      "Pre": 521,
      "con": 522,
      "ero": 523,
      "ical": 524,
      "Algebra": 525,
      "✝⁵": 526,
      "Li": 527,
      "Topolog": 528,
      "is": 529,
      "Topological": 530,
      "rw": 531,
      "simp": 532,
      "TopologicalSpace": 533,
      "Me": 534,
      "Pro": 535,
      "ec": 536,
      "ft": 537,
      "✝⁶": 538,
      "ly": 539,
      "su": 540,
      "ff": 541,
      "Un": 542,
      "comp": 543,
      "able": 544,
      "ctor": 545,
      "int": 546,
      "uiv": 547,
      "ed": 548,
      "ass": 549,
      "Fi": 550,
      "nd": 551,
      "mem": 552,
      "of": 553,
      "Cat": 554,
      "Map": 555,
      "es": 556,
      "ht": 557,
      "Subm": 558,
      "eq": 559,
      "inear": 560,
      "Or": 561,
      "Cl": 562,
      "Equiv": 563,
      "✝⁷": 564,
      "ecid": 565,
      "us": 566,
      "asu": 567,
      "mp": 568,
      "Class": 569,
      "ecidable": 570,
      "Decidable": 571,
      "ction": 572,
      "ym": 573,
      "ght": 574,
      "RingHom": 575,
      "tri": 576,
      "ory": 577,
      "In": 578,
      "ot": 579,
      "orm": 580,
      "egory": 581,
      "pro": 582,
      "Measu": 583,
      "ty": 584,
      "Unit": 585,
      "CommSemiring": 586,
      "Order": 587,
      "sym": 588,
      "Category": 589,
      "✝⁸": 590,
      "⁻¹": 591,
      "oc": 592,
      "en": 593,
      "symm": 594,
      "NormedAddCommGroup": 595,
      "ru": 596,
      "CommRing": 597,
      "co": 598,
      "NormedSpace": 599,
      "ne": 600,
      "ple": 601,
      "an": 602,
      "Linear": 603,
      "Zero": 604,
      "per": 605,
      "DecidableEq": 606,
      "sup": 607,
      "eld": 608,
      "St": 609,
      "nvar2": 610,
      "functor": 611,
      "Con": 612,
      "zero": 613,
      "Finset": 614,
      "uo": 615,
      "Prop": 616,
      "toPre": 617,
      "ex": 618,
      "neg": 619,
      "Unital": 620,
      "✝⁹": 621,
      "type": 622,
      "NonUnital": 623,
      "po": 624,
      "left": 625,
      "ter": 626,
      "car": 627,
      "Field": 628,
      "supp": 629,
      "intro": 630,
      "aes": 631,
      "aesop": 632,
      "right": 633,
      "toPrefunctor": 634,
      "rable": 635,
      "smul": 636,
      "sets": 637,
      "bj": 638,
      "snd": 639,
      "fst": 640,
      "ss": 641,
      "th": 642,
      "one": 643,
      "Inv": 644,
      "₁₂": 645,
      "Submonoid": 646,
      "ran": 647,
      "ith": 648,
      "tin": 649,
      "ist": 650,
      "ke": 651,
      "uous": 652,
      "tinuous": 653,
      "¬¬": 654,
      "ve": 655,
      "obj": 656,
      "il": 657,
      "add": 658,
      "✝¹⁰": 659,
      "order": 660,
      "Like": 661,
      "Measurable": 662,
      "Semin": 663,
      "alse": 664,
      "Ass": 665,
      "Assoc": 666,
      "SMul": 667,
      "ref": 668,
      "Preorder": 669,
      "ial": 670,
      "ow": 671,
      "iff": 672,
      "One": 673,
      "hom": 674,
      "ation": 675,
      "Lie": 676,
      "cc": 677,
      "NonAssoc": 678,
      "10": 679,
      "Seminormed": 680,
      "Prod": 681,
      "✝¹¹": 682,
      "With": 683,
      "False": 684,
      "rier": 685,
      "perty": 686,
      "carrier": 687,
      "property": 688,
      "app": 689,
      "algebra": 690,
      "Pa": 691,
      "Fintype": 692,
      "Pair": 693,
      "✝¹²": 694,
      "pos": 695,
      "ha": 696,
      "↑↑": 697,
      "tric": 698,
      "NonAssocSemiring": 699,
      "comm": 700,
      "de": 701,
      "Rel": 702,
      "tice": 703,
      "attice": 704,
      "Function": 705,
      "gr": 706,
      "₂₃": 707,
      "ion": 708,
      "Co": 709,
      "invFun": 710,
      "hf": 711,
      "li": 712,
      "ower": 713,
      "SeminormedAddCommGroup": 714,
      "toAdd": 715,
      "support": 716,
      "univ": 717,
      "tive": 718,
      "norm": 719,
      "coe": 720,
      "Metric": 721,
      "RingHomInv": 722,
      "RingHomInvPair": 723,
      "Comp": 724,
      "Par": 725,
      "group": 726,
      "11": 727,
      "LinearMap": 728,
      "this": 729,
      "pen": 730,
      "ta": 731,
      "Has": 732,
      "FunLike": 733,
      "MeasurableSpace": 734,
      "get": 735,
      "MetricSpace": 736,
      "Nat": 737,
      "Fil": 738,
      "Submodule": 739,
      "sem": 740,
      "Subsem": 741,
      "Multi": 742,
      "Star": 743,
      "calar": 744,
      "Scalar": 745,
      "Filter": 746,
      "odup": 747,
      "range": 748,
      "succ": 749,
      "te": 750,
      "Sup": 751,
      "uct": 752,
      "mpty": 753,
      "ruct": 754,
      "Comple": 755,
      "age": 756,
      "cast": 757,
      "sor": 758,
      "ure": 759,
      "Tri": 760,
      "Continuous": 761,
      "ner": 762,
      "ite": 763,
      "ome": 764,
      "if": 765,
      "Bo": 766,
      "congr": 767,
      "12": 768,
      "only": 769,
      "₁₃": 770,
      "tial": 771,
      "vial": 772,
      "Tower": 773,
      "ual": 774,
      "toEquiv": 775,
      "ScalarTower": 776,
      "IsScalarTower": 777,
      "Action": 778,
      "ur": 779,
      "wap": 780,
      "Inf": 781,
      "swap": 782,
      "ffine": 783,
      "✝¹³": 784,
      "refine": 785,
      "Ordered": 786,
      "iz": 787,
      "all": 788,
      "OneClass": 789,
      "Re": 790,
      "trivial": 791,
      "nvar3": 792,
      "he": 793,
      "sub": 794,
      "ud": 795,
      "Affine": 796,
      "Open": 797,
      "inr": 798,
      "Partial": 799,
      "Struct": 800,
      "act": 801,
      "mpr": 802,
      "nodup": 803,
      "Triple": 804,
      "CompTriple": 805,
      "unop": 806,
      "Lattice": 807,
      "Nontrivial": 808,
      "seud": 809,
      "seudo": 810,
      "MulAction": 811,
      "Pseudo": 812,
      "RingHomCompTriple": 813,
      "simpa": 814,
      "Product": 815,
      "empty": 816,
      "NonUnitalNonAssocSemiring": 817,
      "rue": 818,
      "Of": 819,
      "NormedField": 820,
      "Measure": 821,
      "✝¹⁴": 822,
      "ver": 823,
      "inl": 824,
      "Dist": 825,
      "Le": 826,
      "continuous": 827,
      "Finite": 828,
      "und": 829,
      "hx": 830,
      "ight": 831,
      "star": 832,
      "fl": 833,
      "Div": 834,
      "Mat": 835,
      "→₀": 836,
      "prod": 837,
      "const": 838,
      "rix": 839,
      "MulOneClass": 840,
      "toAddSubmonoid": 841,
      "rib": 842,
      "rfl": 843,
      "ad": 844,
      "13": 845,
      "some": 846,
      "ent": 847,
      "Tor": 848,
      "unit": 849,
      "List": 850,
      "cont": 851,
      "Torsor": 852,
      "AddTorsor": 853,
      "₂₁": 854,
      "Finsupp": 855,
      "Functions": 856,
      "Distrib": 857,
      "ations": 858,
      "Matrix": 859,
      "AddGroup": 860,
      "✝¹⁵": 861,
      "rap": 862,
      "image": 863,
      "lift": 864,
      "Relations": 865,
      "ma": 866,
      "hs": 867,
      "uto": 868,
      "Dual": 869,
      "lyNormedField": 870,
      "refl": 871,
      "NontriviallyNormedField": 872,
      "ingle": 873,
      "Ch": 874,
      "Right": 875,
      "Po": 876,
      "DistribMulAction": 877,
      "LieRing": 878,
      "so": 879,
      "Left": 880,
      "Real": 881,
      "Ide": 882,
      "Structure": 883,
      "AffineSpace": 884,
      "tauto": 885,
      "losu": 886,
      "losure": 887,
      "Subsemiring": 888,
      "Ideal": 889,
      "Inner": 890,
      "✝¹⁶": 891,
      "toLinearMap": 892,
      "ba": 893,
      "pt": 894,
      "coeff": 895,
      "InnerProduct": 896,
      "InnerProductSpace": 897,
      "igroup": 898,
      "ph": 899,
      "ree": 900,
      "To": 901,
      "On": 902,
      "Ad": 903,
      "Complete": 904,
      "apply": 905,
      "pre": 906,
      "CommClass": 907,
      "single": 908,
      "Op": 909,
      "SMulCommClass": 910,
      "Divis": 911,
      "Nonempty": 912,
      "Subalgebra": 913,
      "Multiset": 914,
      "algebraMap": 915,
      "Sum": 916,
      "Lo": 917,
      "exact": 918,
      "Bot": 919,
      "Local": 920,
      "Adj": 921,
      "Iso": 922,
      "₃₂": 923,
      "PseudoMetricSpace": 924,
      "AddMonoid": 925,
      "LE": 926,
      "ₛₗ": 927,
      "omial": 928,
      "CommMonoid": 929,
      "linear": 930,
      "Dom": 931,
      "di": 932,
      "ext": 933,
      "not": 934,
      "Subgroup": 935,
      "urce": 936,
      "inter": 937,
      "ᵒᵖ": 938,
      "vert": 939,
      "rans": 940,
      "ol": 941,
      "orph": 942,
      "spa": 943,
      "using": 944,
      "source": 945,
      "jec": 946,
      "Char": 947,
      "True": 948,
      "card": 949,
      "At": 950,
      "ic": 951,
      "ker": 952,
      "WithZero": 953,
      "unded": 954,
      "Semil": 955,
      "comap": 956,
      "nat": 957,
      "Subsemigroup": 958,
      "eval": 959,
      "14": 960,
      "✝¹⁷": 961,
      "NormedAddTorsor": 962,
      "Int": 963,
      "ch": 964,
      "Poly": 965,
      "um": 966,
      "IsOpen": 967,
      "ose": 968,
      "hg": 969,
      "toSubmonoid": 970,
      "LinearOrdered": 971,
      "jective": 972,
      "sed": 973,
      "₃₁": 974,
      "Option": 975,
      "Form": 976,
      "losed": 977,
      "nomial": 978,
      "Division": 979,
      "ig": 980,
      "↑↑↑↑": 981,
      "ab": 982,
      "MonoidHom": 983,
      "PartialEquiv": 984,
      "Polynomial": 985,
      "uA": 986,
      "convert": 987,
      "ant": 988,
      "ind": 989,
      "erse": 990,
      "span": 991,
      "ructor": 992,
      "constructor": 993,
      "trans": 994,
      "asis": 995,
      "Alg": 996,
      "15": 997,
      "Sim": 998,
      "toFinsupp": 999,
      "closure": 1000,
      "MeasurableSet": 1001,
      "top": 1002,
      "dist": 1003,
      "edSpace": 1004,
      "Mv": 1005,
      "ck": 1006,
      "✝¹⁸": 1007,
      "inal": 1008,
      "str": 1009,
      "Simple": 1010,
      "ut": 1011,
      "ry": 1012,
      "sum": 1013,
      "pi": 1014,
      "ization": 1015,
      "₂✝": 1016,
      "ate": 1017,
      "LieAlgebra": 1018,
      "₁✝": 1019,
      "itive": 1020,
      "ang": 1021,
      "Complex": 1022,
      "for": 1023,
      "Bounded": 1024,
      "assoc": 1025,
      "Qu": 1026,
      "Union": 1027,
      "root": 1028,
      "Semilattice": 1029,
      "am": 1030,
      "lf": 1031,
      "16": 1032,
      "jo": 1033,
      "ser": 1034,
      "af": 1035,
      "heaf": 1036,
      "nvar4": 1037,
      "def": 1038,
      "tar": 1039,
      "Dis": 1040,
      "iform": 1041,
      "ring": 1042,
      "lt": 1043,
      "ange": 1044,
      "dinal": 1045,
      "then": 1046,
      "ain": 1047,
      "target": 1048,
      "ofNat": 1049,
      "contrap": 1050,
      "contrapose": 1051,
      "else": 1052,
      "toProd": 1053,
      "hp": 1054,
      "nt": 1055,
      "module": 1056,
      "Der": 1057,
      "Subtype": 1058,
      "¬¬¬¬": 1059,
      "₃₄": 1060,
      "rom": 1061,
      "Basis": 1062,
      "₄₃": 1063,
      "perset": 1064,
      "superset": 1065,
      "max": 1066,
      "Pri": 1067,
      "Deriv": 1068,
      "Free": 1069,
      "none": 1070,
      "Mod": 1071,
      "Cor": 1072,
      "cases": 1073,
      "Closed": 1074,
      "₄₂": 1075,
      "ag": 1076,
      "₂₄": 1077,
      "₁₄": 1078,
      "fin": 1079,
      "ast": 1080,
      "Inverse": 1081,
      "Norm": 1082,
      "ity": 1083,
      "pow": 1084,
      "raph": 1085,
      "Graph": 1086,
      "oot": 1087,
      "ue": 1088,
      "MvPolynomial": 1089,
      "Multilinear": 1090,
      "ull": 1091,
      "₄₁": 1092,
      "row": 1093,
      "iUnion": 1094,
      "mb": 1095,
      "AlgHom": 1096,
      "PartialOrder": 1097,
      "hi": 1098,
      "SimpleGraph": 1099,
      "true": 1100,
      "Monoidal": 1101,
      "ton": 1102,
      "Succ": 1103,
      "DivisionRing": 1104,
      "✝¹⁹": 1105,
      "LieModule": 1106,
      "equiv": 1107,
      "hape": 1108,
      "Functor": 1109,
      "ral": 1110,
      "self": 1111,
      "Corner": 1112,
      "base": 1113,
      "Corners": 1114,
      "pli": 1115,
      "WithCorners": 1116,
      "pr": 1117,
      "ensor": 1118,
      "imit": 1119,
      "StarRing": 1120,
      "CLike": 1121,
      "RCLike": 1122,
      "V1": 1123,
      "ism": 1124,
      "orphism": 1125,
      "tail": 1126,
      "joint": 1127,
      "Locally": 1128,
      "Di": 1129,
      "V2": 1130,
      "EMetricSpace": 1131,
      "ists": 1132,
      "toDual": 1133,
      "own": 1134,
      "stri": 1135,
      "17": 1136,
      "uter": 1137,
      "Uniform": 1138,
      "uterMeasure": 1139,
      "edd": 1140,
      "mbedd": 1141,
      "mbedding": 1142,
      "ves": 1143,
      "OuterMeasure": 1144,
      "LieRingModule": 1145,
      "Coalgebra": 1146,
      "down": 1147,
      "LinearEquiv": 1148,
      "NN": 1149,
      "strict": 1150,
      "✝²⁰": 1151,
      "sert": 1152,
      "ame": 1153,
      "inf": 1154,
      "CompleteLattice": 1155,
      "with": 1156,
      "Ind": 1157,
      "uage": 1158,
      "anguage": 1159,
      "Language": 1160,
      "Pred": 1161,
      "Ab": 1162,
      "Domain": 1163,
      "insert": 1164,
      "bit": 1165,
      "Chart": 1166,
      "hb": 1167,
      "iq": 1168,
      "Morphism": 1169,
      "tient": 1170,
      "PseudoEMetricSpace": 1171,
      "Embedding": 1172,
      "head": 1173,
      "uotient": 1174,
      "num": 1175,
      "Subring": 1176,
      "toL": 1177,
      "sInf": 1178,
      "unt": 1179,
      "Io": 1180,
      "low": 1181,
      "HasZero": 1182,
      "MultilinearMap": 1183,
      "singleton": 1184,
      "cl": 1185,
      "back": 1186,
      "Bil": 1187,
      "Ne": 1188,
      "ullback": 1189,
      "toPartialEquiv": 1190,
      "HEq": 1191,
      "igma": 1192,
      "Per": 1193,
      "nel": 1194,
      "proj": 1195,
      "cons": 1196,
      "toSubsemigroup": 1197,
      "measu": 1198,
      "exists": 1199,
      "ep": 1200,
      "⁻¹⁻¹": 1201,
      "Bilin": 1202,
      "P1": 1203,
      "ci": 1204,
      "rank": 1205,
      "V3": 1206,
      "plica": 1207,
      "pure": 1208,
      "sSup": 1209,
      "by": 1210,
      "Pi": 1211,
      "ChartedSpace": 1212,
      "xp": 1213,
      "den": 1214,
      "par": 1215,
      "onal": 1216,
      "NNReal": 1217,
      "sheaf": 1218,
      "repr": 1219,
      "Sym": 1220,
      "toNonUnital": 1221,
      "Isome": 1222,
      "Bi": 1223,
      "LinearOrder": 1224,
      "ting": 1225,
      "rel": 1226,
      "MonoidalCategory": 1227,
      "Morphisms": 1228,
      "toSubsemiring": 1229,
      "BilinForm": 1230,
      "NonAssocRing": 1231,
      "lower": 1232,
      "mop": 1233,
      "alk": 1234,
      "Tensor": 1235,
      "Quotient": 1236,
      "ZeroClass": 1237,
      "ase": 1238,
      "upper": 1239,
      "ique": 1240,
      "toid": 1241,
      "pact": 1242,
      "Const": 1243,
      "ᵒᵈ": 1244,
      "Setoid": 1245,
      "From": 1246,
      "aliz": 1247,
      "counit": 1248,
      "Prime": 1249,
      "HasZeroMorphisms": 1250,
      "ord": 1251,
      "subtype": 1252,
      "Model": 1253,
      "Quot": 1254,
      "DecidablePred": 1255,
      "cle": 1256,
      "ilter": 1257,
      "End": 1258,
      "sion": 1259,
      "bo": 1260,
      "ole": 1261,
      "toAddHom": 1262,
      "urry": 1263,
      "dual": 1264,
      "filter": 1265,
      "bot": 1266,
      "omorph": 1267,
      "ᵐᵒᵖ": 1268,
      "UniformSpace": 1269,
      "plicative": 1270,
      "dsimp": 1271,
      "Bool": 1272,
      "V4": 1273,
      "Diff": 1274,
      "open": 1275,
      "19": 1276,
      "Boole": 1277,
      "Boolean": 1278,
      "✝²¹": 1279,
      "egree": 1280,
      "CommGroup": 1281,
      "nil": 1282,
      "ModelWithCorners": 1283,
      "ology": 1284,
      "rintro": 1285,
      "18": 1286,
      "Gen": 1287,
      "LatticeHom": 1288,
      "Game": 1289,
      "Congr": 1290,
      "hn": 1291,
      "toSubmodule": 1292,
      "yting": 1293,
      "forget": 1294,
      "Fact": 1295,
      "SetLike": 1296,
      "isOpen": 1297,
      "✝²²": 1298,
      "false": 1299,
      "toOuterMeasure": 1300,
      "✝²³": 1301,
      "CoalgebraStruct": 1302,
      "wo": 1303,
      "Nodup": 1304,
      "ie": 1305,
      "Disjoint": 1306,
      "Compact": 1307,
      "Closure": 1308,
      "cod": 1309,
      "negSucc": 1310,
      "ield": 1311,
      "PGame": 1312,
      "hd": 1313,
      "contra": 1314,
      "Fra": 1315,
      "eomorph": 1316,
      "xl": 1317,
      "Ordinal": 1318,
      "NonUnitalNonAssocRing": 1319,
      "xr": 1320,
      "uR": 1321,
      "ofDual": 1322,
      "Mon": 1323,
      "ries": 1324,
      "BoundedOrder": 1325,
      "Series": 1326,
      "OfNat": 1327,
      "¬¬¬": 1328,
      "iant": 1329,
      "SemilatticeSup": 1330,
      "toFinset": 1331,
      "Walk": 1332,
      "imJ": 1333,
      "imK": 1334,
      "hr": 1335,
      "Gener": 1336,
      "fa": 1337,
      "div": 1338,
      "ect": 1339,
      "✝²⁴": 1340,
      "Homeomorph": 1341,
      "cel": 1342,
      "↑↑↑↑↑↑↑↑": 1343,
      "curry": 1344,
      "deriv": 1345,
      "imI": 1346,
      "rod": 1347,
      "oprod": 1348,
      "yl": 1349,
      "date": 1350,
      "update": 1351,
      "unmop": 1352,
      "diff": 1353,
      "Localization": 1354,
      "ModuleCat": 1355,
      "Iic": 1356,
      "Within": 1357,
      "hy": 1358,
      "ors": 1359,
      "MonoidWithZero": 1360,
      "cat": 1361,
      "have": 1362,
      "SupHom": 1363,
      "kernel": 1364,
      "LeftInverse": 1365,
      "Icc": 1366,
      "ary": 1367,
      "Cast": 1368,
      "Fraction": 1369,
      "CompleteSpace": 1370,
      "No": 1371,
      "Inter": 1372,
      "ian": 1373,
      "ng": 1374,
      "Sm": 1375,
      "ytingAlgebra": 1376,
      "mono": 1377,
      "Lp": 1378,
      "Car": 1379,
      "restrict": 1380,
      "arrow": 1381,
      "non": 1382,
      "ded": 1383,
      "Ici": 1384,
      "SemilatticeInf": 1385,
      "preimage": 1386,
      "Injective": 1387,
      "P2": 1388,
      "Coe": 1389,
      "point": 1390,
      "StarModule": 1391,
      "baseSet": 1392,
      "ality": 1393,
      "sin": 1394,
      "Obj": 1395,
      "alized": 1396,
      "inj": 1397,
      "Up": 1398,
      "Can": 1399,
      "shape": 1400,
      "Cᵒᵖ": 1401,
      "LinearOrderedField": 1402,
      "ove": 1403,
      "toContinuous": 1404,
      "owerSet": 1405,
      "limit": 1406,
      "Ar": 1407,
      "ise": 1408,
      "additive": 1409,
      "ron": 1410,
      "Perm": 1411,
      "Walking": 1412,
      "var": 1413,
      "vadd": 1414,
      "PUnit": 1415,
      "subset": 1416,
      "yr": 1417,
      "ycle": 1418,
      "ber": 1419,
      "toLinearEquiv": 1420,
      "loop": 1421,
      "αᵒᵈ": 1422,
      "edist": 1423,
      "Seq": 1424,
      "OrderHom": 1425,
      "old": 1426,
      "end": 1427,
      "pl": 1428,
      "compl": 1429,
      "cre": 1430,
      "Cone": 1431,
      "CommMonoidWithZero": 1432,
      "crete": 1433,
      "Ap": 1434,
      "ax": 1435,
      "less": 1436,
      "Lift": 1437,
      "AddSubmonoid": 1438,
      "loopless": 1439,
      "finrank": 1440,
      "He": 1441,
      "min": 1442,
      "Preadditive": 1443,
      "tic": 1444,
      "Upper": 1445,
      "wise": 1446,
      "xt": 1447,
      "Mono": 1448,
      "22": 1449,
      "try": 1450,
      "Degree": 1451,
      "ide": 1452,
      "agonal": 1453,
      "trim": 1454,
      "Adjo": 1455,
      "✝²⁵": 1456,
      "Seminorm": 1457,
      "Cardinal": 1458,
      "isL": 1459,
      "pullback": 1460,
      "Gra": 1461,
      "tone": 1462,
      "men": 1463,
      "IsDomain": 1464,
      "nvar5": 1465,
      "run": 1466,
      "rjective": 1467,
      "measurable": 1468,
      "uD": 1469,
      "ooth": 1470,
      "comul": 1471,
      "SL": 1472,
      "hgf": 1473,
      "OrderedSemiring": 1474,
      "IH": 1475,
      "Val": 1476,
      "Graded": 1477,
      "RightInverse": 1478,
      "Sigma": 1479,
      "sto": 1480,
      "44": 1481,
      "index": 1482,
      "LocallyFinite": 1483,
      "rop": 1484,
      "starRing": 1485,
      "field": 1486,
      "lie": 1487,
      "uι": 1488,
      "AlgHomClass": 1489,
      "erase": 1490,
      "toMonoidHom": 1491,
      "verse": 1492,
      "natur": 1493,
      "izer": 1494,
      "Spe": 1495,
      "Shape": 1496,
      "Ioo": 1497,
      "Discrete": 1498,
      "mension": 1499,
      "Dimension": 1500,
      "Dimensional": 1501,
      "hain": 1502,
      "OrderBot": 1503,
      "Topology": 1504,
      "Neg": 1505,
      "FiniteDimensional": 1506,
      "struct": 1507,
      "ho": 1508,
      "abs": 1509,
      "commut": 1510,
      "P3": 1511,
      "PartialHomeomorph": 1512,
      "ih": 1513,
      "NormedRing": 1514,
      "BooleanAlgebra": 1515,
      "MulZero": 1516,
      "dom": 1517,
      "MulZeroOneClass": 1518,
      "toReal": 1519,
      "yL": 1520,
      "toSubalgebra": 1521,
      "ndist": 1522,
      "nndist": 1523,
      "55": 1524,
      "Change": 1525,
      "incl": 1526,
      "20": 1527,
      "₃✝": 1528,
      "hc": 1529,
      "UpperSet": 1530,
      "RingHomClass": 1531,
      "23": 1532,
      "image2": 1533,
      "sᶜ": 1534,
      "Surjective": 1535,
      "Integ": 1536,
      "cos": 1537,
      "vec": 1538,
      "arrows": 1539,
      "toNonUnitalSubsemiring": 1540,
      "Indep": 1541,
      "IsLocalization": 1542,
      "Fₗ": 1543,
      "Divisors": 1544,
      "Bor": 1545,
      "Generalized": 1546,
      "xL": 1547,
      "yR": 1548,
      "starRingEnd": 1549,
      "structure": 1550,
      "Smooth": 1551,
      "count": 1552,
      "plit": 1553,
      "LowerSet": 1554,
      "Ii": 1555,
      "Iio": 1556,
      "Opens": 1557,
      "AddZeroClass": 1558,
      "inary": 1559,
      "Derivation": 1560,
      "tra": 1561,
      "xR": 1562,
      "au": 1563,
      "Root": 1564,
      "Num": 1565,
      "toAffine": 1566,
      "hm": 1567,
      "sq": 1568,
      "Cancel": 1569,
      "aeval": 1570,
      "SeminormedRing": 1571,
      "cone": 1572,
      "abv": 1573,
      "Ioi": 1574,
      "Isometric": 1575,
      "iat": 1576,
      "Sheaf": 1577,
      "naturality": 1578,
      "h1": 1579,
      "IsUnit": 1580,
      "diction": 1581,
      "contradiction": 1582,
      "leng": 1583,
      "length": 1584,
      "26": 1585,
      "abel": 1586,
      "commutes": 1587,
      "Semigroup": 1588,
      "forall": 1589,
      "toFunctor": 1590,
      "IsClosed": 1591,
      "uce": 1592,
      "vsub": 1593,
      "Stri": 1594,
      "Applicative": 1595,
      "Mₗ": 1596,
      "Arrow": 1597,
      "Coeff": 1598,
      "sie": 1599,
      "conj": 1600,
      "rwa": 1601,
      "24": 1602,
      "MapClass": 1603,
      "25": 1604,
      "✝²⁶": 1605,
      "unique": 1606,
      "ute": 1607,
      "Two": 1608,
      "ratic": 1609,
      "adratic": 1610,
      "Strict": 1611,
      "move": 1612,
      "endsto": 1613,
      "lock": 1614,
      "Tendsto": 1615,
      "bind": 1616,
      "m0": 1617,
      "Mo": 1618,
      "LocallyFiniteOrder": 1619,
      "Isometry": 1620,
      "Limit": 1621,
      "¬↑": 1622,
      "xs": 1623,
      "NoZero": 1624,
      "mat": 1625,
      "27": 1626,
      "hv": 1627,
      "variant": 1628,
      "rec": 1629,
      "Part": 1630,
      "FractionRing": 1631,
      "toAddMonoidHom": 1632,
      "sigma": 1633,
      "Prim": 1634,
      "mon": 1635,
      "variantClass": 1636,
      "28": 1637,
      "Additive": 1638,
      "tition": 1639,
      "pus": 1640,
      "Quadratic": 1641,
      "WithOne": 1642,
      "Rᵐᵒᵖ": 1643,
      "Moves": 1644,
      "Coprod": 1645,
      "continuousOn": 1646,
      "P4": 1647,
      "Point": 1648,
      "from": 1649,
      "29": 1650,
      "olu": 1651,
      "ComplexShape": 1652,
      "seq": 1653,
      "funext": 1654,
      "Sq": 1655,
      "cop": 1656,
      "Pullback": 1657,
      "Box": 1658,
      "vex": 1659,
      "Fa": 1660,
      "30": 1661,
      "nion": 1662,
      "red": 1663,
      "WithLp": 1664,
      "elim": 1665,
      "Tot": 1666,
      "Total": 1667,
      "Normal": 1668,
      "natDegree": 1669,
      "Ioc": 1670,
      "eqTo": 1671,
      "WithBot": 1672,
      "imp": 1673,
      "ily": 1674,
      "let": 1675,
      "TensorProduct": 1676,
      "Span": 1677,
      "amily": 1678,
      "FDeriv": 1679,
      "sndTo": 1680,
      "fstTo": 1681,
      "codable": 1682,
      "An": 1683,
      "toOrderHom": 1684,
      "toEmbedding": 1685,
      "Unique": 1686,
      "uiver": 1687,
      "✝²⁷": 1688,
      "Quiver": 1689,
      "InfHom": 1690,
      "uced": 1691,
      "hift": 1692,
      "WithTop": 1693,
      "copy": 1694,
      "Spect": 1695,
      "CovariantClass": 1696,
      "Restrict": 1697,
      "Sym2": 1698,
      "ENNReal": 1699,
      "next": 1700,
      "wE": 1701,
      "✝²⁸": 1702,
      "✝²⁹": 1703,
      "measure": 1704,
      "Bdd": 1705,
      "toNat": 1706,
      "TopCat": 1707,
      "ular": 1708,
      "Ico": 1709,
      "esc": 1710,
      "Au": 1711,
      "Binary": 1712,
      "QuadraticForm": 1713,
      "Lat": 1714,
      "toRingHom": 1715,
      "38": 1716,
      "Trans": 1717,
      "pend": 1718,
      "ign": 1719,
      "rc": 1720,
      "elian": 1721,
      "Abelian": 1722,
      "uS": 1723,
      "ector": 1724,
      "✝³⁰": 1725,
      "bi": 1726,
      "Multiplicative": 1727,
      "✝³¹": 1728,
      "cent": 1729,
      "ₛₗᵢ": 1730,
      "eren": 1731,
      "exp": 1732,
      "closed": 1733,
      "Constant": 1734,
      "Trun": 1735,
      "WithinAt": 1736,
      "Empty": 1737,
      "36": 1738,
      "Semilinear": 1739,
      "Homo": 1740,
      "ga": 1741,
      "NonUnitalSemiring": 1742,
      "ult": 1743,
      "uE": 1744,
      "SemilinearMapClass": 1745,
      "space": 1746,
      "presheaf": 1747,
      "37": 1748,
      "toLatticeHom": 1749,
      "tible": 1750,
      "eqToHom": 1751,
      "Vec": 1752,
      "heytingAlgebra": 1753,
      "Aux": 1754,
      "ault": 1755,
      "TopologicalAddGroup": 1756,
      "default": 1757,
      "39": 1758,
      "InfSet": 1759,
      "ated": 1760,
      "ofReal": 1761,
      "RingHomIsometric": 1762,
      "46": 1763,
      "cted": 1764,
      "eight": 1765,
      "aw": 1766,
      "uF": 1767,
      "ts": 1768,
      "prev": 1769,
      "split": 1770,
      "undle": 1771,
      "sTo": 1772,
      "compa": 1773,
      "ContinuousConst": 1774,
      "toMul": 1775,
      "hS": 1776,
      "rum": 1777,
      "ContinuousConstSMul": 1778,
      "Bundle": 1779,
      "Stron": 1780,
      "Strong": 1781,
      "Vector": 1782,
      "Object": 1783,
      "40": 1784,
      "Lex": 1785,
      "Rat": 1786,
      "Differen": 1787,
      "NormedAlgebra": 1788,
      "coord": 1789,
      "bounded": 1790,
      "step": 1791,
      "sieves": 1792,
      "AddHom": 1793,
      "NonUnitalSubsemiring": 1794,
      "bit0": 1795,
      "central": 1796,
      "inverse": 1797,
      "toNNReal": 1798,
      "ming": 1799,
      "desc": 1800,
      "OrderTop": 1801,
      "edge": 1802,
      "product": 1803,
      "Ha": 1804,
      "NonUnitalStar": 1805,
      "Man": 1806,
      "nonempty": 1807,
      "Subsingleton": 1808,
      "companion": 1809,
      "and": 1810,
      "Mem": 1811,
      "gonal": 1812,
      "Ex": 1813,
      "47": 1814,
      "Homology": 1815,
      "uation": 1816,
      "nology": 1817,
      "Bornology": 1818,
      "ful": 1819,
      "Substructure": 1820,
      "58": 1821,
      "ork": 1822,
      "ertible": 1823,
      "Ir": 1824,
      "Coproduct": 1825,
      "usion": 1826,
      "Exp": 1827,
      "Pairwise": 1828,
      "LocallyConstant": 1829,
      "lip": 1830,
      "toContinuousMap": 1831,
      "hT": 1832,
      "cen": 1833,
      "center": 1834,
      "Power": 1835,
      "grap": 1836,
      "inde": 1837,
      "graph": 1838,
      "Law": 1839,
      "monomial": 1840,
      "iso": 1841,
      "det": 1842,
      "Count": 1843,
      "Factor": 1844,
      "angent": 1845,
      "has": 1846,
      "↑⊤": 1847,
      "toSupHom": 1848,
      "IsC": 1849,
      "lex": 1850,
      "Subspace": 1851,
      "50": 1852,
      "alle": 1853,
      "ological": 1854,
      "57": 1855,
      "SeminormedGroup": 1856,
      "OneHom": 1857,
      "NonUnitalRingHomClass": 1858,
      "NonUnitalAlgHomClass": 1859,
      "ae": 1860,
      "ifold": 1861,
      "Manifold": 1862,
      "ManifoldWithCorners": 1863,
      "SmoothManifoldWithCorners": 1864,
      "partition": 1865,
      "pointed": 1866,
      "tiable": 1867,
      "LT": 1868,
      "ata": 1869,
      "Loc": 1870,
      "48": 1871,
      "49": 1872,
      "Orth": 1873,
      "SupSet": 1874,
      "iter": 1875,
      "Trunc": 1876,
      "gc": 1877,
      "NeBot": 1878,
      "Ei": 1879,
      "ofMul": 1880,
      "⋃₀": 1881,
      "Locus": 1882,
      "HasBinary": 1883,
      "loor": 1884,
      "measureOf": 1885,
      "ball": 1886,
      "Spectrum": 1887,
      "Base": 1888,
      "sndFrom": 1889,
      "coordChange": 1890,
      "Ker": 1891,
      "Invertible": 1892,
      "toSubring": 1893,
      "TypeVec": 1894,
      "ys": 1895,
      "56": 1896,
      "Adjoin": 1897,
      "uC": 1898,
      "allel": 1899,
      "✝³²": 1900,
      "fstFrom": 1901,
      "Scalars": 1902,
      "DecidableRel": 1903,
      "ib": 1904,
      "Countable": 1905,
      "CongrRight": 1906,
      "dition": 1907,
      "Associat": 1908,
      "ior": 1909,
      "push": 1910,
      "tend": 1911,
      "toMultilinearMap": 1912,
      "ink": 1913,
      "angle": 1914,
      "RingEquiv": 1915,
      "Pₗ": 1916,
      "Den": 1917,
      "↑↑↑↑↑↑↑↑↑↑↑↑↑↑↑↑": 1918,
      "reverse": 1919,
      "arg": 1920,
      "Pat": 1921,
      "atTop": 1922,
      "block": 1923,
      "Condition": 1924,
      "diagonal": 1925,
      "pred": 1926,
      "ment": 1927,
      "h2": 1928,
      "char": 1929,
      "cospan": 1930,
      "isLt": 1931,
      "ExpChar": 1932,
      "hl": 1933,
      "dis": 1934,
      "TotalSpace": 1935,
      "59": 1936,
      "Max": 1937,
      "Sie": 1938,
      "Sieve": 1939,
      "Path": 1940,
      "Family": 1941,
      "uM": 1942,
      "ofAdd": 1943,
      "coprod": 1944,
      "StarAddMonoid": 1945,
      "Differentiable": 1946,
      "Convex": 1947,
      "domain": 1948,
      "serves": 1949,
      "cexp": 1950,
      "Range": 1951,
      "Ham": 1952,
      "Kernel": 1953,
      "chy": 1954,
      "hrink": 1955,
      "Shrink": 1956,
      "PowerSeries": 1957,
      "hA": 1958,
      "adj": 1959,
      "iti": 1960,
      "Hamming": 1961,
      "pendent": 1962,
      "Single": 1963,
      "ZeroHom": 1964,
      "Floor": 1965,
      "inite": 1966,
      "cept": 1967,
      "power": 1968,
      "Colimit": 1969,
      "Eₗ": 1970,
      "lim": 1971,
      "AdjoinRoot": 1972,
      "alg": 1973,
      "AffineSubspace": 1974,
      "rexp": 1975,
      "OrderedAddCommMonoid": 1976,
      "Anti": 1977,
      "flip": 1978,
      "rime": 1979,
      "uB": 1980,
      "inclusion": 1981,
      "HeytingAlgebra": 1982,
      "NonUnitalNormedRing": 1983,
      "60": 1984,
      "GroupWithZero": 1985,
      "✝³³": 1986,
      "Compl": 1987,
      "70": 1988,
      "Coc": 1989,
      "lattice": 1990,
      "Primcodable": 1991,
      "Lawful": 1992,
      "sol": 1993,
      "Im": 1994,
      "Presheaf": 1995,
      "NormedDivisionRing": 1996,
      "iate": 1997,
      "mediate": 1998,
      "uncurry": 1999,
      "AddGroupHom": 2000,
      "mediateField": 2001,
      "bound": 2002,
      "poly": 2003,
      "toAffineEquiv": 2004,
      "mega": 2005,
      "CompletePartialOrder": 2006,
      "Omega": 2007,
      "OmegaCompletePartialOrder": 2008,
      "mor": 2009,
      "pair": 2010,
      "npow": 2011,
      "oned": 2012,
      "oneda": 2013,
      "IntermediateField": 2014,
      "ei": 2015,
      "CoheytingAlgebra": 2016,
      "join": 2017,
      "ContinuousLinearMap": 2018,
      "NormedAddGroupHom": 2019,
      "ub": 2020,
      "Conj": 2021,
      "Bra": 2022,
      "cator": 2023,
      "Trivial": 2024,
      "ContinuousSMul": 2025,
      "toLex": 2026,
      "last": 2027,
      "hu": 2028,
      "uniform": 2029,
      "Number": 2030,
      "Gₗ": 2031,
      "indep": 2032,
      "hds": 2033,
      "Symme": 2034,
      "tain": 2035,
      "roid": 2036,
      "factor": 2037,
      "gcd": 2038,
      "sign": 2039,
      "AE": 2040,
      "asIdeal": 2041,
      "ob": 2042,
      "toNonUnitalSubalgebra": 2043,
      "cycle": 2044,
      "Bound": 2045,
      "NeZero": 2046,
      "toList": 2047,
      "Pos": 2048,
      "toCo": 2049,
      "Integral": 2050,
      "obtain": 2051,
      "basis": 2052,
      "fac": 2053,
      "toModuleCat": 2054,
      "measurableSet": 2055,
      "Ori": 2056,
      "Cont": 2057,
      "funMap": 2058,
      "GroupSeminorm": 2059,
      "p2": 2060,
      "multi": 2061,
      "interior": 2062,
      "injective": 2063,
      "allelPair": 2064,
      "Perf": 2065,
      "rt": 2066,
      "mβ": 2067,
      "Ord": 2068,
      "DFunLike": 2069,
      "TopHom": 2070,
      "ous": 2071,
      "erm": 2072,
      "itial": 2073,
      "ode": 2074,
      "ContinuousMultilinearMap": 2075,
      "79": 2076,
      "Monotone": 2077,
      "ependent": 2078,
      "Sh": 2079,
      "Adjoint": 2080,
      "his": 2081,
      "ank": 2082,
      "Braid": 2083,
      "LieSubmodule": 2084,
      "finite": 2085,
      "Independent": 2086,
      "p1": 2087,
      "Orient": 2088,
      "NonUnitalSubalgebra": 2089,
      "SemiringAction": 2090,
      "MulSemiringAction": 2091,
      "bit1": 2092,
      "MapsTo": 2093,
      "sqrt": 2094,
      "EquivLike": 2095,
      "Biproduct": 2096,
      "Units": 2097,
      "Min": 2098,
      "cor": 2099,
      "Cof": 2100,
      "Param": 2101,
      "GeneralizedBooleanAlgebra": 2102,
      "src": 2103,
      "ative": 2104,
      "nhds": 2105,
      "toMatrix": 2106,
      "Dire": 2107,
      "PW": 2108,
      "PWO": 2109,
      "restrictScalars": 2110,
      "ven": 2111,
      "ₙₐ": 2112,
      "shift": 2113,
      "Cau": 2114,
      "tensor": 2115,
      "78": 2116,
      "hisker": 2117,
      "69": 2118,
      "mα": 2119,
      "LieSubalgebra": 2120,
      "weight": 2121,
      "AddMonoidWithOne": 2122,
      "cond": 2123,
      "can": 2124,
      "DivisionMonoid": 2125,
      "Symmetric": 2126,
      "ᵃⁱ": 2127,
      "Supp": 2128,
      "AddMonoidHom": 2129,
      "ofFun": 2130,
      "Compacts": 2131,
      "niz": 2132,
      "leib": 2133,
      "leibniz": 2134,
      "start": 2135,
      "out": 2136,
      "Interval": 2137,
      "sInfHom": 2138,
      "By": 2139,
      "MonoidHomClass": 2140,
      "Func": 2141,
      "Cochain": 2142,
      "GradedAlgebra": 2143,
      "degree": 2144,
      "gene": 2145,
      "Perfect": 2146,
      "geneous": 2147,
      "nvar6": 2148,
      "ize": 2149,
      "edCategory": 2150,
      "Short": 2151,
      "ell": 2152,
      "68": 2153,
      "Diag": 2154,
      "castSucc": 2155,
      "two": 2156,
      "Associates": 2157,
      "Homological": 2158,
      "equivShrink": 2159,
      "uc": 2160,
      "HomologicalComplex": 2161,
      "iterated": 2162,
      "ShortComplex": 2163,
      "Ortho": 2164,
      "Image": 2165,
      "moveLeft": 2166,
      "Semif": 2167,
      "Semifield": 2168,
      "jection": 2169,
      "Pow": 2170,
      "NonUnitalSubring": 2171,
      "toLin": 2172,
      "integ": 2173,
      "Valuation": 2174,
      "instFunLike": 2175,
      "normSq": 2176,
      "ac": 2177,
      "yoneda": 2178,
      "decid": 2179,
      "decide": 2180,
      "mula": 2181,
      "33": 2182,
      "whisker": 2183,
      "Sublattice": 2184,
      "unitIso": 2185,
      "LieIdeal": 2186,
      "⋂₀": 2187,
      "habit": 2188,
      "habited": 2189,
      "anti": 2190,
      "DivInv": 2191,
      "ZMod": 2192,
      "h0": 2193,
      "Support": 2194,
      "Bial": 2195,
      "onent": 2196,
      "hI": 2197,
      "Infinite": 2198,
      "Inhabited": 2199,
      "ircle": 2200,
      "hw": 2201,
      "tries": 2202,
      "entries": 2203,
      "match": 2204,
      "ULift": 2205,
      "class": 2206,
      "Bounds": 2207,
      "dire": 2208,
      "Nₗ": 2209,
      "Ball": 2210,
      "wG": 2211,
      "lection": 2212,
      "classical": 2213,
      "egular": 2214,
      "Least": 2215,
      "tl": 2216,
      "toMon": 2217,
      "nvariant": 2218,
      "sdiff": 2219,
      "toRingEquiv": 2220,
      "cancel": 2221,
      "SMulDivisors": 2222,
      "nz": 2223,
      "↑⊥": 2224,
      "NoZeroSMulDivisors": 2225,
      "Regular": 2226,
      "Well": 2227,
      "hxy": 2228,
      "itt": 2229,
      "¬¬¬¬¬¬¬¬": 2230,
      "toRel": 2231,
      "Separ": 2232,
      "DivInvMonoid": 2233,
      "Mk": 2234,
      "assu": 2235,
      "mption": 2236,
      "assumption": 2237,
      "LeftMoves": 2238,
      "IsFractionRing": 2239,
      "Self": 2240,
      "hab": 2241,
      "aco": 2242,
      "hk": 2243,
      "ard": 2244,
      "FreeGroup": 2245,
      "IsEmpty": 2246,
      "isLocallyConstant": 2247,
      "reduced": 2248,
      "toOneHom": 2249,
      "Commute": 2250,
      "¬∃": 2251,
      "hj": 2252,
      "dec": 2253,
      "Ref": 2254,
      "fold": 2255,
      "nonneg": 2256,
      "Kx": 2257,
      "LinearOrderedSemifield": 2258,
      "Abs": 2259,
      "AtLeast": 2260,
      "AtLeastTwo": 2261,
      "MulZeroClass": 2262,
      "verts": 2263,
      "imal": 2264,
      "Projection": 2265,
      "reindex": 2266,
      "gonalProjection": 2267,
      "uction": 2268,
      "NoZeroDivisors": 2269,
      "local": 2270,
      "BraidedCategory": 2271,
      "lp": 2272,
      "Id": 2273,
      "fs": 2274,
      "derivative": 2275,
      "closedBall": 2276,
      "Rank": 2277,
      "Aut": 2278,
      "Qₗ": 2279,
      "Prepartition": 2280,
      "toZeroHom": 2281,
      "form": 2282,
      "Value": 2283,
      "prop": 2284,
      "toRelEmbedding": 2285,
      "¬∀": 2286,
      "chart": 2287,
      "Subfield": 2288,
      "category": 2289,
      "intros": 2290,
      "ream": 2291,
      "Integrable": 2292,
      "induction": 2293,
      "SeminormedCommGroup": 2294,
      "∫⁻": 2295,
      "tprod": 2296,
      "centralizer": 2297,
      "D2": 2298,
      "otent": 2299,
      "integral": 2300,
      "cho": 2301,
      "toSetoid": 2302,
      "The": 2303,
      "D1": 2304,
      "LinearOrderedAddCommGroup": 2305,
      "53": 2306,
      "Homogeneous": 2307,
      "67": 2308,
      "99": 2309,
      "RightMoves": 2310,
      "auto": 2311,
      "IsIntegral": 2312,
      "ive": 2313,
      "cial": 2314,
      "olutive": 2315,
      "MonCat": 2316,
      "union": 2317,
      "diag": 2318,
      "Involutive": 2319,
      "bs": 2320,
      "OrderedRing": 2321,
      "piCongrRight": 2322,
      "DFinsupp": 2323,
      "toPresheaf": 2324,
      "inner": 2325,
      "Ang": 2326,
      "Angle": 2327,
      "MonoidWithZeroHom": 2328,
      "p3": 2329,
      "CancelCommMonoidWithZero": 2330,
      "toCoalg": 2331,
      "Orientation": 2332,
      "Classical": 2333,
      "cobounded": 2334,
      "ualizer": 2335,
      "→⋆": 2336,
      "cs": 2337,
      "FreeAbelian": 2338,
      "FreeAbelianGroup": 2339,
      "natAbs": 2340,
      "88": 2341,
      "iSup": 2342,
      "CharZero": 2343,
      "hα": 2344,
      "zeroLocus": 2345,
      "posite": 2346,
      "Opposite": 2347,
      "Stream": 2348,
      "lexive": 2349,
      "toPartialHomeomorph": 2350,
      "Act": 2351,
      "fderiv": 2352,
      "las": 2353,
      "RingHomSurjective": 2354,
      "Trivialization": 2355,
      "mapRange": 2356,
      "Head": 2357,
      "change": 2358,
      "accept": 2359,
      "LinearOrderedCommMonoidWithZero": 2360,
      "BotHom": 2361,
      "erw": 2362,
      "43": 2363,
      "Above": 2364,
      "trop": 2365,
      "ak": 2366,
      "matrix": 2367,
      "entral": 2368,
      "ConjAct": 2369,
      "monotone": 2370,
      "ence": 2371,
      "HasProduct": 2372,
      "hq": 2373,
      "zation": 2374,
      "LinearOrderedRing": 2375,
      "setOf": 2376,
      "Formal": 2377,
      "coc": 2378,
      "HasCoproduct": 2379,
      "constant": 2380,
      "idi": 2381,
      "toPresheafedSpace": 2382,
      "AddSubgroup": 2383,
      "Cover": 2384,
      "isPWO": 2385,
      "counitIso": 2386,
      "codRestrict": 2387,
      "Cliff": 2388,
      "Clifford": 2389,
      "ofFinsupp": 2390,
      "CliffordAlgebra": 2391,
      "Ext": 2392,
      "Homotop": 2393,
      "Semi": 2394,
      "IsometryEquiv": 2395,
      "traverse": 2396,
      "ingCoeff": 2397,
      "09": 2398,
      "Cocone": 2399,
      "PrimeSpectrum": 2400,
      "ere": 2401,
      "compose": 2402,
      "Absol": 2403,
      "idiagonal": 2404,
      "T2": 2405,
      "em": 2406,
      "extend": 2407,
      "ator": 2408,
      "T2Space": 2409,
      "uteValue": 2410,
      "AbsoluteValue": 2411,
      "NatCast": 2412,
      "pose": 2413,
      "For": 2414,
      "hfg": 2415,
      "ittle": 2416,
      "ittleO": 2417,
      "ua": 2418,
      "BooleanRing": 2419,
      "✝³⁴": 2420,
      "ParallelPair": 2421,
      "Data": 2422,
      "entClosure": 2423,
      "RelMap": 2424,
      "MultilinearSeries": 2425,
      "sinh": 2426,
      "ᶜᶜ": 2427,
      "subst": 2428,
      "CategoryStruct": 2429,
      "DistLat": 2430,
      "shiftFunctor": 2431,
      "FormalMultilinearSeries": 2432,
      "isLittleO": 2433,
      "NonUnitalStarAlgHomClass": 2434,
      "round": 2435,
      "lyMeasurable": 2436,
      "choose": 2437,
      "alize": 2438,
      "tan": 2439,
      "loc": 2440,
      "NumberField": 2441,
      "mulSupport": 2442,
      "RankCondition": 2443,
      "¬¬¬¬¬": 2444,
      "PE": 2445,
      "moveRight": 2446,
      "Eu": 2447,
      "Ta": 2448,
      "Subgraph": 2449,
      "antisymm": 2450,
      "jOn": 2451,
      "Bipointed": 2452,
      "De": 2453,
      "cocycle": 2454,
      "toMonoidWithZeroHom": 2455,
      "NonemptyInterval": 2456,
      "StrongRankCondition": 2457,
      "AlgEquiv": 2458,
      "tor": 2459,
      "66": 2460,
      "FloorRing": 2461,
      "Matroid": 2462,
      "ext1": 2463,
      "clide": 2464,
      "clidean": 2465,
      "Euclidean": 2466,
      "uP": 2467,
      "Gal": 2468,
      "hasPullback": 2469,
      "MulHom": 2470,
      "cau": 2471,
      "ₗᵢ": 2472,
      "gen": 2473,
      "ortho": 2474,
      "untrop": 2475,
      "adjoin": 2476,
      "Simplex": 2477,
      "direction": 2478,
      "lead": 2479,
      "cauchy": 2480,
      "biUnion": 2481,
      "vecHead": 2482,
      "constantCoeff": 2483,
      "alIdeal": 2484,
      "Initial": 2485,
      "Lev": 2486,
      "leadingCoeff": 2487,
      "ContinuousOn": 2488,
      "smulRight": 2489,
      "affine": 2490,
      "oid": 2491,
      "PF": 2492,
      "Limits": 2493,
      "nected": 2494,
      "45": 2495,
      "Cofork": 2496,
      "prodMap": 2497,
      "αˣ": 2498,
      "spe": 2499,
      "arc": 2500,
      "En": 2501,
      "BoolAlg": 2502,
      "Jaco": 2503,
      "Theory": 2504,
      "ace": 2505,
      "ContinuousAdd": 2506,
      "WalkingMulti": 2507,
      "hout": 2508,
      "LawfulApplicative": 2509,
      "ternat": 2510,
      "ₗc": 2511,
      "ternating": 2512,
      "89": 2513,
      "80": 2514,
      "HasFDeriv": 2515,
      "Level": 2516,
      "chartAt": 2517,
      "mid": 2518,
      "fi": 2519,
      "ContinuousMap": 2520,
      "Singleton": 2521,
      "HasDeriv": 2522,
      "Sc": 2523,
      "StronglyMeasurable": 2524,
      "transitive": 2525,
      "77": 2526,
      "EqOn": 2527,
      "coroot": 2528,
      "Small": 2529,
      "lin": 2530,
      "fty": 2531,
      "ward": 2532,
      "ition": 2533,
      "Cur": 2534,
      "Curve": 2535,
      "ance": 2536,
      "WellOrder": 2537,
      "SMulZeroClass": 2538,
      "bian": 2539,
      "Jacobian": 2540,
      "OrderTopology": 2541,
      "Even": 2542,
      "CompactSpace": 2543,
      "SupHomClass": 2544,
      "fb": 2545,
      "Nil": 2546,
      "iteratedFDeriv": 2547,
      "conv": 2548,
      "IsPrime": 2549,
      "Preserves": 2550,
      "inci": 2551,
      "incip": 2552,
      "phere": 2553,
      "Haus": 2554,
      "ground": 2555,
      "deg": 2556,
      "onical": 2557,
      "Canonical": 2558,
      "Canonically": 2559,
      "ighb": 2560,
      "Ke": 2561,
      "powers": 2562,
      "ₐc": 2563,
      "Keys": 2564,
      "Circle": 2565,
      "PM": 2566,
      "InfTopHom": 2567,
      "rcases": 2568,
      "ofLex": 2569,
      "cosh": 2570,
      "Term": 2571,
      "indi": 2572,
      "stable": 2573,
      "indicator": 2574,
      "IsIso": 2575,
      "pointedTo": 2576,
      "IsCompact": 2577,
      "ece": 2578,
      "objs": 2579,
      "piece": 2580,
      "piecewise": 2581,
      "hU": 2582,
      "associat": 2583,
      "MvPowerSeries": 2584,
      "Shift": 2585,
      "trace": 2586,
      "uar": 2587,
      "sα": 2588,
      "uQ": 2589,
      "unsym": 2590,
      "line": 2591,
      "hB": 2592,
      "MulAut": 2593,
      "ois": 2594,
      "Galois": 2595,
      "code": 2596,
      "SimplexCategory": 2597,
      "Lean": 2598,
      "toSubgroup": 2599,
      "hV": 2600,
      "volu": 2601,
      "₀✝": 2602,
      "Borel": 2603,
      "FiniteMeasure": 2604,
      "ytingHom": 2605,
      "πi": 2606,
      "BorelSpace": 2607,
      "⁻¹⁻¹⁻¹": 2608,
      "roth": 2609,
      "tot": 2610,
      "ighbor": 2611,
      "disjoint": 2612,
      "izationMonoid": 2613,
      "vity": 2614,
      "ou": 2615,
      "eck": 2616,
      "data": 2617,
      "CochainComplex": 2618,
      "Property": 2619,
      "induced": 2620,
      "mulRight": 2621,
      "volume": 2622,
      "hz": 2623,
      "encode": 2624,
      "mod": 2625,
      "oprime": 2626,
      "neighbor": 2627,
      "cycles": 2628,
      "reflexive": 2629,
      "minpoly": 2630,
      "natCast": 2631,
      "Irreflexive": 2632,
      "gener": 2633,
      "ay": 2634,
      "SheafedSpace": 2635,
      "Pointed": 2636,
      "Homotopy": 2637,
      "Dense": 2638,
      "Directed": 2639,
      "weightSpace": 2640,
      "units": 2641,
      "StarSubalgebra": 2642,
      "SubmonoidClass": 2643,
      "isation": 2644,
      "90": 2645,
      "ieck": 2646,
      "endieck": 2647,
      "rothendieck": 2648,
      "Formula": 2649,
      "VSub": 2650,
      "equalizer": 2651,
      "mγ": 2652,
      "ram": 2653,
      "Irred": 2654,
      "Factors": 2655,
      "mulLeft": 2656,
      "Bialgebra": 2657,
      "toFilter": 2658,
      "↑↑↑": 2659,
      "sur": 2660,
      "colimit": 2661,
      "Comput": 2662,
      "FractionalIdeal": 2663,
      "MemClass": 2664,
      "stra": 2665,
      "Pt": 2666,
      "edgeSet": 2667,
      "≪≫": 2668,
      "oangle": 2669,
      "sm": 2670,
      "compr": 2671,
      "Triv": 2672,
      "toHamming": 2673,
      "TopologicalSemiring": 2674,
      "IsCo": 2675,
      "Fork": 2676,
      "Sy": 2677,
      "otangent": 2678,
      "InfHomClass": 2679,
      "52": 2680,
      "Cons": 2681,
      "Reflection": 2682,
      "vers": 2683,
      "FSet": 2684,
      "ZFSet": 2685,
      "mable": 2686,
      "thm": 2687,
      "βᵒᵈ": 2688,
      "lineMap": 2689,
      "Dil": 2690,
      "Dilation": 2691,
      "Ms": 2692,
      "63": 2693,
      "hP": 2694,
      "Tra": 2695,
      "Fiber": 2696,
      "FreeMonoid": 2697,
      "compLinearMap": 2698,
      "ally": 2699,
      "HasZeroObject": 2700,
      "Tail": 2701,
      "MulOpposite": 2702,
      "NonUnitalStarSubalgebra": 2703,
      "rothendieckTopology": 2704,
      "DivisionCommMonoid": 2705,
      "BoolRing": 2706,
      "hF": 2707,
      "box": 2708,
      "Completion": 2709,
      "preserves": 2710,
      "parts": 2711,
      "Hahn": 2712,
      "Tangent": 2713,
      "lete": 2714,
      "Lin": 2715,
      "tᶜ": 2716,
      "gcongr": 2717,
      "IsWellOrder": 2718,
      "Component": 2719,
      "MDiff": 2720,
      "prodComm": 2721,
      "Compos": 2722,
      "decompose": 2723,
      "ps": 2724,
      "homEquiv": 2725,
      "isIso": 2726,
      "lax": 2727,
      "vecTail": 2728,
      "vecCons": 2729,
      "infClosed": 2730,
      "iInf": 2731,
      "LM": 2732,
      "Fin2": 2733,
      "CLM": 2734,
      "arcsin": 2735,
      "asic": 2736,
      "hmul": 2737,
      "ators": 2738,
      "Block": 2739,
      "BoundedOrderHom": 2740,
      "sUnion": 2741,
      "IsBounded": 2742,
      "idx": 2743,
      "incipal": 2744,
      "Wei": 2745,
      "erstra": 2746,
      "ssCurve": 2747,
      "Weierstra": 2748,
      "WeierstrassCurve": 2749,
      "itization": 2750,
      "normalize": 2751,
      "IsAbsoluteValue": 2752,
      "Chain": 2753,
      "arith": 2754,
      "ia": 2755,
      "calc": 2756,
      "MonoidAlgebra": 2757,
      "hij": 2758,
      "RingedSpace": 2759,
      "AddSubmonoidClass": 2760,
      "MonoidalFunctor": 2761,
      "toContinuousLinearMap": 2762,
      "linearMap": 2763,
      "Monic": 2764,
      "PerfectRing": 2765,
      "quotient": 2766,
      "Invariant": 2767,
      "Conditionally": 2768,
      "zpow": 2769,
      "basic": 2770,
      "linarith": 2771,
      "odic": 2772,
      "infer": 2773,
      "Core": 2774,
      "54": 2775,
      "73": 2776,
      "AddEquiv": 2777,
      "IsNil": 2778,
      "torsion": 2779,
      "SelfAdjoint": 2780,
      "Cokernel": 2781,
      "supClosed": 2782,
      "Bundled": 2783,
      "CommRingCat": 2784,
      "object": 2785,
      "HomologyData": 2786,
      "blocks": 2787,
      "ConvexCone": 2788,
      "rot": 2789,
      "GrothendieckTopology": 2790,
      "ιₘ": 2791,
      "Summable": 2792,
      "sSupHom": 2793,
      "CharP": 2794,
      "zsmul": 2795,
      "HasBinaryProduct": 2796,
      "IsCentral": 2797,
      "IsCentralScalar": 2798,
      "hφ": 2799,
      "Mᵢ": 2800,
      "Bicategory": 2801,
      "total": 2802,
      "potent": 2803,
      "Cotangent": 2804,
      "tier": 2805,
      "rontier": 2806,
      "98": 2807,
      "CD": 2808,
      "mo": 2809,
      "upperBounds": 2810,
      "bil": 2811,
      "↑∅": 2812,
      "Cauchy": 2813,
      "WalkingSpan": 2814,
      "Cospan": 2815,
      "MulEquiv": 2816,
      "xe": 2817,
      "ofHom": 2818,
      "boxes": 2819,
      "IsNilpotent": 2820,
      "HomogeneousIdeal": 2821,
      "Alternating": 2822,
      "Subobject": 2823,
      "GradedMonoid": 2824,
      "Booleanisation": 2825,
      "kron": 2826,
      "ecker": 2827,
      "kronecker": 2828,
      "kroneckerMap": 2829,
      "xeter": 2830,
      "alence": 2831,
      "idxFun": 2832,
      "Mˣ": 2833,
      "⇑↑": 2834,
      "ean": 2835,
      "instance": 2836,
      "associator": 2837,
      "fg": 2838,
      "Weight": 2839,
      "Encodable": 2840,
      "Sign": 2841,
      "fal": 2842,
      "ev": 2843,
      "Unitization": 2844,
      "OrderedSub": 2845,
      "GeneralizedCoheytingAlgebra": 2846,
      "Odd": 2847,
      "Split": 2848,
      "Fan": 2849,
      "nn": 2850,
      "IsMax": 2851,
      "countable": 2852,
      "AEStronglyMeasurable": 2853,
      "motive": 2854,
      "cof": 2855,
      "76": 2856,
      "HasPullback": 2857,
      "Antitone": 2858,
      "PMF": 2859,
      "ometry": 2860,
      "drop": 2861,
      "Curry": 2862,
      "midpoint": 2863,
      "arge": 2864,
      "Coxeter": 2865,
      "ofRe": 2866,
      "ek": 2867,
      "uniformity": 2868,
      "tw": 2869,
      "₄✝": 2870,
      "00": 2871,
      "CauSeq": 2872,
      "sphere": 2873,
      "stem": 2874,
      "System": 2875,
      "HasFinite": 2876,
      "IsD": 2877,
      "convex": 2878,
      "toAddGroupSeminorm": 2879,
      "Bₘ": 2880,
      "ekind": 2881,
      "edekind": 2882,
      "imed": 2883,
      "diam": 2884,
      "chimed": 2885,
      "chimedean": 2886,
      "toAffineMap": 2887,
      "IsDedekind": 2888,
      "IsDedekindDomain": 2889,
      "Edist": 2890,
      "TangentSpace": 2891,
      "node": 2892,
      "BoundedSMul": 2893,
      "ofRepr": 2894,
      "OrderedAddCommGroup": 2895,
      "laxFunctor": 2896,
      "OrderIso": 2897,
      "ius": 2898,
      "Complement": 2899,
      "trivialization": 2900,
      "ude": 2901,
      "homology": 2902,
      "AlternatingMap": 2903,
      "₁₂✝": 2904,
      "xed": 2905,
      "exchange": 2906,
      "nvar7": 2907,
      "StarMul": 2908,
      "AddMonoidAlgebra": 2909,
      "Indi": 2910,
      "hle": 2911,
      "GCD": 2912,
      "maxim": 2913,
      "GCDMonoid": 2914,
      "HasColimit": 2915,
      "BoundedLatticeHom": 2916,
      "IsCompl": 2917,
      "isometry": 2918,
      "toAddSubgroup": 2919,
      "uniq": 2920,
      "itivity": 2921,
      "positivity": 2922,
      "CompleteLatticeHom": 2923,
      "basicOpen": 2924,
      "Indicator": 2925,
      "exfal": 2926,
      "exfalso": 2927,
      "axMonoidalFunctor": 2928,
      "include": 2929,
      "rob": 2930,
      "ale": 2931,
      "IsP": 2932,
      "Groupoid": 2933,
      "enius": 2934,
      "robenius": 2935,
      "col": 2936,
      "WalkingCospan": 2937,
      "vd": 2938,
      "HasOrtho": 2939,
      "CompHaus": 2940,
      "Types": 2941,
      "IHxl": 2942,
      "IHxr": 2943,
      "Generators": 2944,
      "finset": 2945,
      "eak": 2946,
      "φv": 2947,
      "nN": 2948,
      "toLowerSet": 2949,
      "size": 2950,
      "toCoalgHom": 2951,
      "tag": 2952,
      "AddGroupWithOne": 2953,
      "baseChange": 2954,
      "irc": 2955,
      "Word": 2956,
      "Archimedean": 2957,
      "opt": 2958,
      "LocalRing": 2959,
      "submatrix": 2960,
      "97": 2961,
      "ᵀᵀ": 2962,
      "prime": 2963,
      "disj": 2964,
      "21": 2965,
      "IsSheaf": 2966,
      "frontier": 2967,
      "ContDiff": 2968,
      "toCompacts": 2969,
      "toPrelaxFunctor": 2970,
      "DilationClass": 2971,
      "orthogonalProjection": 2972,
      "PredOrder": 2973,
      "mc": 2974,
      "zi": 2975,
      "btw": 2976,
      "LinearIndependent": 2977,
      "isFalse": 2978,
      "RingCat": 2979,
      "LieHom": 2980,
      "hpq": 2981,
      "qu": 2982,
      "IsSelfAdjoint": 2983,
      "Pl": 2984,
      "family": 2985,
      "Proba": 2986,
      "bir": 2987,
      "IsLowerSet": 2988,
      "LocalizationMap": 2989,
      "Exists": 2990,
      "toTop": 2991,
      "↑↑↑↑↑↑↑↑↑↑↑↑↑↑↑↑↑↑↑↑↑↑↑↑↑↑↑↑↑↑↑↑": 2992,
      "sa": 2993,
      "Coprime": 2994,
      "toFractionRing": 2995,
      "SeminormedAddGroup": 2996,
      "34": 2997,
      "mapMatrix": 2998,
      "argeCategory": 2999,
      "tendsto": 3000,
      "HahnSeries": 3001,
      "liftOn": 3002,
      "toDerivation": 3003,
      "adjoint": 3004,
      "uG": 3005,
      "yc": 3006,
      "spect": 3007,
      "SubsemiringClass": 3008,
      "RatFunc": 3009,
      "toIoc": 3010,
      "Biproducts": 3011,
      "Rˣ": 3012,
      "uci": 3013,
      "ucible": 3014,
      "son": 3015,
      "ιs": 3016,
      "Col": 3017,
      "foldr": 3018,
      "App": 3019,
      "ually": 3020,
      "Weak": 3021,
      "distrib": 3022,
      "uK": 3023,
      "limMap": 3024,
      "ofHamming": 3025,
      "ContinuousMul": 3026,
      "optParam": 3027,
      "hnp": 3028,
      "nodupKeys": 3029,
      "fp": 3030,
      "singleAddHom": 3031,
      "Projective": 3032,
      "SimplexCategoryᵒᵖ": 3033,
      "Index": 3034,
      "ham": 3035,
      "Peri": 3036,
      "casesOn": 3037,
      "CanonicallyOrderedAddCommMonoid": 3038,
      "IsLocal": 3039,
      "PiLp": 3040,
      "BC": 3041,
      "hSR": 3042,
      "rTensor": 3043,
      "InjOn": 3044,
      "fra": 3045,
      "heytingHom": 3046,
      "ren": 3047,
      "bility": 3048,
      "toEnd": 3049,
      "HasKernel": 3050,
      "Colex": 3051,
      "As": 3052,
      "Cycle": 3053,
      "maximality": 3054,
      "DiscreteTopology": 3055,
      "UniqueDiff": 3056,
      "Probability": 3057,
      "nih": 3058,
      "dArrow": 3059,
      "ilator": 3060,
      "nihilator": 3061,
      "roots": 3062,
      "aleph": 3063,
      "onorm": 3064,
      "onormal": 3065,
      "tosInfHom": 3066,
      "Monad": 3067,
      "addEquiv": 3068,
      "getD": 3069,
      "ick": 3070,
      "MeasurableSMul": 3071,
      "rangeRestrict": 3072,
      "nonunit": 3073,
      "Direct": 3074,
      "omic": 3075,
      "FromTypes": 3076,
      "icken": 3077,
      "ension": 3078,
      "IsCobounded": 3079,
      "chain": 3080,
      "Refl": 3081,
      "uN": 3082,
      "himp": 3083,
      "TopologicalGroup": 3084,
      "35": 3085,
      "toBundled": 3086,
      "ℤˣ": 3087,
      "toInfHom": 3088,
      "gment": 3089,
      "ProbabilityMeasure": 3090,
      "BiheytingAlgebra": 3091,
      "Row": 3092,
      "uniformContinuous": 3093,
      "86": 3094,
      "IsometricSMul": 3095,
      "replica": 3096,
      "replicate": 3097,
      "NF": 3098,
      "toLieHom": 3099,
      "HasBinaryCoproduct": 3100,
      "neighborSet": 3101,
      "neLocus": 3102,
      "IsMin": 3103,
      "HasOrthogonalProjection": 3104,
      "cate": 3105,
      "idem": 3106,
      "Res": 3107,
      "ms": 3108,
      "toLaxMonoidalFunctor": 3109,
      "sity": 3110,
      "transpose": 3111,
      "autoParam": 3112,
      "go": 3113,
      "HasDerivAt": 3114,
      "isTrue": 3115,
      "compMultilinearMap": 3116,
      "hst": 3117,
      "StrictOrderedSemiring": 3118,
      "FiberBundle": 3119,
      "dor": 3120,
      "dorff": 3121,
      "lTensor": 3122,
      "surj": 3123,
      "std": 3124,
      "PosNum": 3125,
      "lowerBounds": 3126,
      "affineSpan": 3127,
      "zip": 3128,
      "Rep": 3129,
      "AddCommGroupCat": 3130,
      "SuccOrder": 3131,
      "LargeCategory": 3132,
      "GradedRing": 3133,
      "IsUpperSet": 3134,
      "isCompact": 3135,
      "NormOneClass": 3136,
      "blockDiag": 3137,
      "weighted": 3138,
      "radi": 3139,
      "generate": 3140,
      "ariant": 3141,
      "radius": 3142,
      "Blocks": 3143,
      "isClosed": 3144,
      "σR": 3145,
      "Partition": 3146,
      "Terminal": 3147,
      "GL": 3148,
      "Same": 3149,
      "VectorMeasure": 3150,
      "ChartAt": 3151,
      "96": 3152,
      "NonUnitalRing": 3153,
      "mulIndicator": 3154,
      "EquivOf": 3155,
      "ofColex": 3156,
      "Over": 3157,
      "75": 3158,
      "σS": 3159,
      "OfLE": 3160,
      "WalkingPair": 3161,
      "itz": 3162,
      "HasImage": 3163,
      "term": 3164,
      "PFunctor": 3165,
      "LieDerivation": 3166,
      "hμ": 3167,
      "nectedComponent": 3168,
      "hC": 3169,
      "invariant": 3170,
      "Ant": 3171,
      "hh": 3172,
      "dvd": 3173,
      "Ult": 3174,
      "Ultra": 3175,
      "SubgroupClass": 3176,
      "Ultrafilter": 3177,
      "Nonar": 3178,
      "cokernel": 3179,
      "GeneralizedHeytingAlgebra": 3180,
      "AddGroupSeminorm": 3181,
      "HasSum": 3182,
      "WalkingParallelPair": 3183,
      "versable": 3184,
      "IntCast": 3185,
      "free": 3186,
      "Aₘ": 3187,
      "vars": 3188,
      "DivisionSemiring": 3189,
      "rev": 3190,
      "FG": 3191,
      "ofList": 3192,
      "preReflection": 3193,
      "mδ": 3194,
      "fromPUnit": 3195,
      "zpowers": 3196,
      "stdBasis": 3197,
      "Iff": 3198,
      "ij": 3199,
      "liftAux": 3200,
      "GroupCat": 3201,
      "entually": 3202,
      "binary": 3203,
      "Unitor": 3204,
      "frobenius": 3205,
      "tr": 3206,
      "topological": 3207,
      "Pairing": 3208,
      "compact": 3209,
      "sieve": 3210,
      "Realize": 3211,
      "amma": 3212,
      "toSheafedSpace": 3213,
      "Separable": 3214,
      "simple": 3215,
      "Semiconj": 3216,
      "OrderDual": 3217,
      "Wide": 3218,
      "mer": 3219,
      "Mag": 3220,
      "Magma": 3221,
      "principal": 3222,
      "Ed": 3223,
      "AddChar": 3224,
      "Edge": 3225,
      "ContinuousStar": 3226,
      "Slas": 3227,
      "hInvariant": 3228,
      "SlashInvariant": 3229,
      "SlashInvariantForm": 3230,
      "¬⇑": 3231,
      "Irreducible": 3232,
      "Ari": 3233,
      "LocallyRingedSpace": 3234,
      "mapsTo": 3235,
      "fract": 3236,
      "BddAbove": 3237,
      "BoundedFormula": 3238,
      "maximal": 3239,
      "ickening": 3240,
      "None": 3241,
      "Antidiagonal": 3242,
      "rα": 3243,
      "u1": 3244,
      "u2": 3245,
      "TwoPoint": 3246,
      "torsionBy": 3247,
      "TwoPointing": 3248,
      "place": 3249,
      "plic": 3250,
      "NFA": 3251,
      "LinearOrderedSemiring": 3252,
      "87": 3253,
      "extentClosure": 3254,
      "atta": 3255,
      "attach": 3256,
      "unitary": 3257,
      "OpensMeasurableSpace": 3258,
      "Be": 3259,
      "TopologicalRing": 3260,
      "Simpli": 3261,
      "HasFDerivAt": 3262,
      "Simplicial": 3263,
      "✝⁻¹": 3264,
      "tomic": 3265,
      "lotomic": 3266,
      "antidiagonal": 3267,
      "yclotomic": 3268,
      "toIco": 3269,
      "Orthonormal": 3270,
      "Density": 3271,
      "Th": 3272,
      "Traversable": 3273,
      "equivFun": 3274,
      "CommGroupWithZero": 3275,
      "MorphismProperty": 3276,
      "Nonarch": 3277,
      "¬⊥": 3278,
      "32": 3279,
      "toDFinsupp": 3280,
      "option": 3281,
      "₂₃✝": 3282,
      "trivializationAt": 3283,
      "HasInitial": 3284,
      "pb": 3285,
      "initial": 3286,
      "WalkingMulticospan": 3287,
      "powerset": 3288,
      "intentClosure": 3289,
      "64": 3290,
      "fderivWithin": 3291,
      "SMulWithZero": 3292,
      "Ep": 3293,
      "dedup": 3294,
      "imorphism": 3295,
      "formula": 3296,
      "Diagonal": 3297,
      "topologicalClosure": 3298,
      "Equivalence": 3299,
      "NormedCommRing": 3300,
      "Symm": 3301,
      "PSet": 3302,
      "factors": 3303,
      "StrictOrdered": 3304,
      "hX": 3305,
      "₆✝": 3306,
      "nth": 3307,
      "HasStrict": 3308,
      "ze": 3309,
      "DirectSum": 3310,
      "OrderedCommMonoid": 3311,
      "DifferentiableAt": 3312,
      "factorization": 3313,
      "wCast": 3314,
      "rawCast": 3315,
      "HasShift": 3316,
      "uV": 3317,
      "Gamma": 3318,
      "ofSet": 3319,
      "snorm": 3320,
      "Epimorphism": 3321,
      "toMulHom": 3322,
      "cmp": 3323,
      "IsFiniteMeasure": 3324,
      "IsRefl": 3325,
      "ifs": 3326,
      "Normalized": 3327,
      "↥↑": 3328,
      "Bialg": 3329,
      "downward": 3330,
      "toAddSubsemigroup": 3331,
      "lowerClosure": 3332,
      "08": 3333,
      "subtypeDomain": 3334,
      "Fq": 3335,
      "alf": 3336,
      "walk": 3337,
      "FloorSemiring": 3338,
      "Red": 3339,
      "PseudoEpimorphism": 3340,
      "walking": 3341,
      "pol": 3342,
      "peri": 3343,
      "αi": 3344,
      "rename": 3345,
      "Adic": 3346,
      "¬⊤": 3347,
      "Below": 3348,
      "ParallelPairOp": 3349,
      "walkingParallelPairOp": 3350,
      "OrderedCommGroup": 3351,
      "extChartAt": 3352,
      "orbit": 3353,
      "res": 3354,
      "iterate": 3355,
      "toLat": 3356,
      "neBot": 3357,
      "SMulMemClass": 3358,
      "toCategoryStruct": 3359,
      "ust": 3360,
      "EquivProd": 3361,
      "uare": 3362,
      "⁻¹⁻¹⁻¹⁻¹": 3363,
      "Snd": 3364,
      "BddDistLat": 3365,
      "Computation": 3366,
      "lc": 3367,
      "ideal": 3368,
      "Fn": 3369,
      "CompIso": 3370,
      "fA": 3371,
      "EuclideanSpace": 3372,
      "Gᵐᵒᵖ": 3373,
      "ushout": 3374,
      "noncomm": 3375,
      "OpenSubgroup": 3376,
      "94": 3377,
      "OrderedSMul": 3378,
      "Infty": 3379,
      "OfEq": 3380,
      "eta": 3381,
      "pushout": 3382,
      "ott": 3383,
      "Complemented": 3384,
      "Under": 3385,
      "off": 3386,
      "NormalizationMonoid": 3387,
      "FreeMagma": 3388,
      "CoeSort": 3389,
      "SmallCategory": 3390,
      "ncard": 3391,
      "toMap": 3392,
      "Cub": 3393,
      "Epi": 3394,
      "locally": 3395,
      "toMultiset": 3396,
      "HasDistrib": 3397,
      "HasDistribNeg": 3398,
      "LinearIsometryEquiv": 3399,
      "Exact": 3400,
      "¬¬¬¬¬¬": 3401,
      "Primrec": 3402,
      "uₘ": 3403,
      "65": 3404,
      "uₒ": 3405,
      "SimplicialObject": 3406,
      "₁₁": 3407,
      "LieModuleHom": 3408,
      "Aᵀ": 3409,
      "orderIso": 3410,
      "βi": 3411,
      "iZ": 3412,
      "uₙ": 3413,
      "OfShape": 3414,
      "PEmpty": 3415,
      "toContinuousOrderHom": 3416,
      "Proj": 3417,
      "toConjAct": 3418,
      "blockDiagonal": 3419,
      "eₙ": 3420,
      "ralMap": 3421,
      "SpectralMap": 3422,
      "DiscreteQuotient": 3423,
      "toCoalgEquiv": 3424,
      "CategoryTheory": 3425,
      "inder": 3426,
      "83": 3427,
      "aᶜ": 3428,
      "domDom": 3429,
      "points": 3430,
      "Square": 3431,
      "mapComp": 3432,
      "infty": 3433,
      "UniqueDiffOn": 3434,
      "tsze": 3435,
      "lopen": 3436,
      "domDomCongr": 3437,
      "InvolutiveInv": 3438,
      "CancelAddCommMonoid": 3439,
      "Half": 3440,
      "Presieve": 3441,
      "eₘ": 3442,
      "orderOf": 3443,
      "haus": 3444,
      "hausdorff": 3445,
      "parallelPair": 3446,
      "PresheafedSpace": 3447,
      "heme": 3448,
      "lpBC": 3449,
      "Scheme": 3450,
      "iteratedFDerivWithin": 3451,
      "init": 3452,
      "Roots": 3453,
      "Arrows": 3454,
      "ValuationSubring": 3455,
      "IsSymm": 3456,
      "HasHomology": 3457,
      "uX": 3458,
      "ish": 3459,
      "CongrLeft": 3460,
      "indexAt": 3461,
      "decode": 3462,
      "asHomogeneousIdeal": 3463,
      "SmoothMul": 3464,
      "VectorBundle": 3465,
      "Scott": 3466,
      "whiskerRight": 3467,
      "06": 3468,
      "ENat": 3469,
      "LeftInvariant": 3470,
      "infEdist": 3471,
      "IsReal": 3472,
      "Special": 3473,
      "MinOrder": 3474,
      "ling": 3475,
      "NormalizedGCDMonoid": 3476,
      "BddLat": 3477,
      "NoMinOrder": 3478,
      "ray": 3479,
      "append": 3480,
      "IsLimit": 3481,
      "UniformContinuous": 3482,
      "nf": 3483,
      "74": 3484,
      "structureSheaf": 3485,
      "WalkingMultispan": 3486,
      "hM": 3487,
      "EReal": 3488,
      "ele": 3489,
      "rotation": 3490,
      "NNRat": 3491,
      "Bijective": 3492,
      "whiskerLeft": 3493,
      "Rec": 3494,
      "lect": 3495,
      "dualMap": 3496,
      "upperClosure": 3497,
      "natTrans": 3498,
      "Es": 3499,
      "ces": 3500,
      "Big": 3501,
      "BigO": 3502,
      "os": 3503,
      "IHyl": 3504,
      "IHyr": 3505,
      "eventually": 3506,
      "mkQ": 3507,
      "dim": 3508,
      "SupBotHom": 3509,
      "ConditionallyComplete": 3510,
      "StrictMono": 3511,
      "circ": 3512,
      "mapDomain": 3513,
      "εNFA": 3514,
      "rid": 3515,
      "isjoint": 3516,
      "periodic": 3517,
      "uster": 3518,
      "member": 3519,
      "cocone": 3520,
      "fr": 3521,
      "lhs": 3522,
      "Algebraic": 3523,
      "Zeta": 3524,
      "s1": 3525,
      "spectral": 3526,
      "Rows": 3527,
      "Ele": 3528,
      "Orthogonal": 3529,
      "HasFDerivWithinAt": 3530,
      "hE": 3531,
      "Place": 3532,
      "Not": 3533,
      "Ns": 3534,
      "compos": 3535,
      "Profinite": 3536,
      "FGModuleCat": 3537,
      "toSet": 3538,
      "ged": 3539,
      "Tag": 3540,
      "Tagged": 3541,
      "usterPt": 3542,
      "composition": 3543,
      "uIcc": 3544,
      "Decomposition": 3545,
      "HasFiniteBiproducts": 3546,
      "BialgHom": 3547,
      "Deg": 3548,
      "MaxOrder": 3549,
      "toIdeal": 3550,
      "derivWithin": 3551,
      "NonarchAddGroupSeminorm": 3552,
      "olution": 3553,
      "trun": 3554,
      "delete": 3555,
      "SingleObj": 3556,
      "NoMaxOrder": 3557,
      "84": 3558,
      "BddBelow": 3559,
      "mpotent": 3560,
      "a1": 3561,
      "acter": 3562,
      "ration": 3563,
      "Frame": 3564,
      "s2": 3565,
      "proof": 3566,
      "OfUnit": 3567,
      "includeRight": 3568,
      "𝓝ˢ": 3569,
      "OrthogonalFamily": 3570,
      "reflection": 3571,
      "eth": 3572,
      "equivProd": 3573,
      "fromBlocks": 3574,
      "plicity": 3575,
      "Bifunctor": 3576,
      "offDiag": 3577,
      "thd": 3578,
      "Subset": 3579,
      "birthd": 3580,
      "birthday": 3581,
      "countP": 3582,
      "fₗ": 3583,
      "succAbove": 3584,
      "SigmaFinite": 3585,
      "proper": 3586,
      "vector": 3587,
      "toIocMod": 3588,
      "ContinuousAt": 3589,
      "Idx": 3590,
      "toHom": 3591,
      "omorphic": 3592,
      "unction": 3593,
      "SignType": 3594,
      "circle": 3595,
      "erian": 3596,
      "etherian": 3597,
      "ℒp": 3598,
      "squar": 3599,
      "InfClosed": 3600,
      "squared": 3601,
      "AddCommSemigroup": 3602,
      "finsupp": 3603,
      "Mer": 3604,
      "Meromorphic": 3605,
      "rhs": 3606,
      "OrderedCancelAddCommMonoid": 3607,
      "tinu": 3608,
      "LocallyFiniteOrderBot": 3609,
      "Subcategory": 3610,
      "Noetherian": 3611,
      "funLike": 3612,
      "SupClosed": 3613,
      "Composition": 3614,
      "hd2": 3615,
      "SpanSingleton": 3616,
      "are": 3617,
      "Height": 3618,
      "isLimit": 3619,
      "ylinder": 3620,
      "Concept": 3621,
      "encard": 3622,
      "akia": 3623,
      "Esakia": 3624,
      "EsakiaHom": 3625,
      "Fst": 3626,
      "lev": 3627,
      "even": 3628,
      "MeasurableMul": 3629,
      "Triangle": 3630,
      "Aᵐᵒᵖ": 3631,
      "dir": 3632,
      "polar": 3633,
      "Lower": 3634,
      "AlgebraTensor": 3635,
      "functorCategory": 3636,
      "AlgebraTensorModule": 3637,
      "fib": 3638,
      "Cubic": 3639,
      "Products": 3640,
      "ZeroExt": 3641,
      "SqZeroExt": 3642,
      "TrivSqZeroExt": 3643,
      "ples": 3644,
      "FDerivAt": 3645,
      "93": 3646,
      "UniqueFactor": 3647,
      "UniqueFactorizationMonoid": 3648,
      "ullSubcategory": 3649,
      "multiples": 3650,
      "withTop": 3651,
      "ingular": 3652,
      "othe": 3653,
      "homothe": 3654,
      "homothety": 3655,
      "ContinuousWithinAt": 3656,
      "minimal": 3657,
      "toLinear": 3658,
      "natural": 3659,
      "TaggedPrepartition": 3660,
      "ari": 3661,
      "divis": 3662,
      "HasCokernel": 3663,
      "Points": 3664,
      "withDensity": 3665,
      "ContMDiff": 3666,
      "unitality": 3667,
      "Pushout": 3668,
      "replace": 3669,
      "fι": 3670,
      "vectorSpan": 3671,
      "iX": 3672,
      "SimpleFunc": 3673,
      "sigmaCongrRight": 3674,
      "Bu": 3675,
      "toLieModuleHom": 3676,
      "embedding": 3677,
      "AddMonoidHomClass": 3678,
      "Bump": 3679,
      "pairwise": 3680,
      "HasBiproduct": 3681,
      "ofEquiv": 3682,
      "valuation": 3683,
      "illing": 3684,
      "₂✝¹": 3685,
      "mkOf": 3686,
      "dif": 3687,
      "LeftInvariantDerivation": 3688,
      "ug": 3689,
      "contMDiff": 3690,
      "iteratedDeriv": 3691,
      "ableArrows": 3692,
      "isUnit": 3693,
      "OfUnity": 3694,
      "φp": 3695,
      "ClusterPt": 3696,
      "Rot": 3697,
      "hne": 3698,
      "IsNoetherian": 3699,
      "BigOWith": 3700,
      "IsS": 3701,
      "tration": 3702,
      "walkingParallelPairOpEquiv": 3703,
      "hε": 3704,
      "ComposableArrows": 3705,
      "LinearOrderedAddCommMonoid": 3706,
      "toLeftMoves": 3707,
      "Modules": 3708,
      "isPrime": 3709,
      "OfModules": 3710,
      "Filtration": 3711,
      "ized": 3712,
      "Annihilator": 3713,
      "hmn": 3714,
      "GradedObject": 3715,
      "OD": 3716,
      "42": 3717,
      "mapPair": 3718,
      "GOne": 3719,
      "IsPWO": 3720,
      "toOne": 3721,
      "BddOrd": 3722,
      "Last": 3723,
      "Trop": 3724,
      "Tropical": 3725,
      "Null": 3726,
      "ernion": 3727,
      "aternion": 3728,
      "Primitive": 3729,
      "AffineMap": 3730,
      "Quaternion": 3731,
      "ProjectiveSpectrum": 3732,
      "bly": 3733,
      "Step": 3734,
      "Cent": 3735,
      "Centroid": 3736,
      "prese": 3737,
      "HasColimits": 3738,
      "Extension": 3739,
      "divisors": 3740,
      "rpow": 3741,
      "hler": 3742,
      "IsProbabilityMeasure": 3743,
      "Incl": 3744,
      "diagram": 3745,
      "multicospan": 3746,
      "RelIso": 3747,
      "toInt": 3748,
      "EMetric": 3749,
      "prox": 3750,
      "SubNeg": 3751,
      "130": 3752,
      "CO": 3753,
      "recOn": 3754,
      "hjk": 3755,
      "toTopologicalSpace": 3756,
      "isGalois": 3757,
      "quot": 3758,
      "Abelianization": 3759,
      "ωSup": 3760,
      "VAdd": 3761,
      "abil": 3762,
      "fixed": 3763,
      "Factorization": 3764,
      "wf": 3765,
      "HasDerivWithinAt": 3766,
      "addMonoidHom": 3767,
      "toSlashInvariantForm": 3768,
      "ates": 3769,
      "OneSpectrum": 3770,
      "LinOrd": 3771,
      "HeightOneSpectrum": 3772,
      "hxj": 3773,
      "CoxeterMatrix": 3774,
      "cyclotomic": 3775,
      "cylinder": 3776,
      "hxi": 3777,
      "Memℒp": 3778,
      "wg": 3779,
      "LHom": 3780,
      "AList": 3781,
      "toComplex": 3782,
      "CancelMonoid": 3783,
      "resol": 3784,
      "IsDirected": 3785,
      "CommSemigroup": 3786,
      "hR": 3787,
      "tably": 3788,
      "lyOrdered": 3789,
      "DenselyOrdered": 3790,
      "untably": 3791,
      "nvar8": 3792,
      "abilizer": 3793,
      "core": 3794,
      "126": 3795,
      "IsL": 3796,
      "Differential": 3797,
      "dic": 3798,
      "NatTrans": 3799,
      "NonUnitalSubsemiringClass": 3800,
      "hK": 3801,
      "cyclesMap": 3802,
      "relev": 3803,
      "irrelev": 3804,
      "irrelevant": 3805,
      "Transform": 3806,
      "IsPrimitive": 3807,
      "toAlgHom": 3808,
      "lsub": 3809,
      "umn": 3810,
      "structuredArrow": 3811,
      "rn": 3812,
      "prodMk": 3813,
      "Absor": 3814,
      "lpBCF": 3815,
      "rnDeriv": 3816,
      "Oriented": 3817,
      "ιA": 3818,
      "hamming": 3819,
      "sumArrow": 3820,
      "lyClosed": 3821,
      "SubMulAction": 3822,
      "tmul": 3823,
      "metic": 3824,
      "Sets": 3825,
      "thmetic": 3826,
      "Arithmetic": 3827,
      "ArithmeticFunction": 3828,
      "smooth": 3829,
      "contLinear": 3830,
      "basisFun": 3831,
      "72": 3832,
      "coyoneda": 3833,
      "IsRegular": 3834,
      "CentroidHom": 3835,
      "Computable": 3836,
      "Inclusion": 3837,
      "IsIntegrallyClosed": 3838,
      "iInter": 3839,
      "instCoalgebra": 3840,
      "αᵐᵒᵖ": 3841,
      "srange": 3842,
      "intCast": 3843,
      "HasTerminal": 3844,
      "peat": 3845,
      "coeHom": 3846,
      "HasBinaryBiproduct": 3847,
      "IsBigOWith": 3848,
      "iY": 3849,
      "wEi": 3850,
      "bipointedTo": 3851,
      "bipointedToPointed": 3852,
      "LinearOrderedCommGroupWithZero": 3853,
      "chitz": 3854,
      "do": 3855,
      "padic": 3856,
      "vary": 3857,
      "100": 3858,
      "lcm": 3859,
      "heq": 3860,
      "ιa": 3861,
      "ιb": 3862,
      "LinearGroup": 3863,
      "homMk": 3864,
      "Generated": 3865,
      "toNatOrdinal": 3866,
      "AEMeasurable": 3867,
      "subgroup": 3868,
      "allelFamily": 3869,
      "AdicCompletion": 3870,
      "hnorm": 3871,
      "InfinitePlace": 3872,
      "len": 3873,
      "t2": 3874,
      "AddCircle": 3875,
      "bodd": 3876,
      "CoxeterSystem": 3877,
      "bijective": 3878,
      "toInfTopHom": 3879,
      "lof": 3880,
      "ok": 3881,
      "arrowCongr": 3882,
      "IsColimit": 3883,
      "MulDistribMulAction": 3884,
      "Splitting": 3885,
      "₁✝¹": 3886,
      "biproduct": 3887,
      "PerfectPairing": 3888,
      "CountableTopology": 3889,
      "ClosedUnder": 3890,
      "ating": 3891,
      "fork": 3892,
      "ls": 3893,
      "pairwiseDisjoint": 3894,
      "enum": 3895,
      "tangent": 3896,
      "dualAnnihilator": 3897,
      "gra": 3898,
      "nsmul": 3899,
      "isModule": 3900,
      "MvFunctor": 3901,
      "Lawson": 3902,
      "85": 3903,
      "95": 3904,
      "InvOn": 3905,
      "surjective": 3906,
      "repeat": 3907,
      "arou": 3908,
      "aroubi": 3909,
      "ₛₙₐ": 3910,
      "ConditionallyCompleteLattice": 3911,
      "elems": 3912,
      "compAlternatingMap": 3913,
      "iling": 3914,
      "comapDomain": 3915,
      "familyOf": 3916,
      "62": 3917,
      "hN": 3918,
      "PMap": 3919,
      "lope": 3920,
      "Central": 3921,
      "TensorHom": 3922,
      "Spec": 3923,
      "Clopen": 3924,
      "contract": 3925,
      "ugate": 3926,
      "MulActionWithZero": 3927,
      "Sur": 3928,
      "slope": 3929,
      "DifferentiableWithinAt": 3930,
      "braid": 3931,
      "HasLimit": 3932,
      "Cod": 3933,
      "BialgebraCat": 3934,
      "present": 3935,
      "colimMap": 3936,
      "toGroupSeminorm": 3937,
      "cale": 3938,
      "sh": 3939,
      "Bl": 3940,
      "castRingHom": 3941,
      "LocallyBounded": 3942,
      "rcg": 3943,
      "StrictOrderedCommRing": 3944,
      "find": 3945,
      "isAddCommGroup": 3946,
      "Realizer": 3947,
      "IsComplex": 3948,
      "SurjOn": 3949,
      "sigmaFinsupp": 3950,
      "CostructuredArrow": 3951,
      "BiheytingHom": 3952,
      "complete": 3953,
      "Relation": 3954,
      "directed": 3955,
      "integralClosure": 3956,
      "toCompHaus": 3957,
      "singular": 3958,
      "idue": 3959,
      "coassoc": 3960,
      "toHomeomorph": 3961,
      "asi": 3962,
      "logb": 3963,
      "Periodic": 3964,
      "ofId": 3965,
      "¬¬↑": 3966,
      "whiskering": 3967,
      "FrameHom": 3968,
      "keys": 3969,
      "Represent": 3970,
      "toPoly": 3971,
      "curryLeft": 3972,
      "Mᵐᵒᵖ": 3973,
      "ofFn": 3974,
      "lintegral": 3975,
      "AddConst": 3976,
      "toIs": 3977,
      "WSeq": 3978,
      "gb": 3979,
      "rangeFactorization": 3980,
      "kernelSubobject": 3981,
      "toPrepartition": 3982,
      "1055": 3983,
      "jaco": 3984,
      "IsoOfEq": 3985,
      "Compose": 3986,
      "IsPrimitiveRoot": 3987,
      "normalized": 3988,
      "hL": 3989,
      "untablyGenerated": 3990,
      "cofinite": 3991,
      "resolve": 3992,
      "110": 3993,
      "LocallyBoundedMap": 3994,
      "ulant": 3995,
      "kew": 3996,
      "circulant": 3997,
      "ofConjAct": 3998,
      "StarAlgHom": 3999,
      "polynomial": 4000,
      "Fo": 4001,
      "StarOrderedRing": 4002,
      "approx": 4003,
      "Hull": 4004,
      "sn": 4005,
      "rotate": 4006,
      "triangle": 4007,
      "snoc": 4008,
      "bern": 4009,
      "07": 4010,
      "x2": 4011,
      "γᵒᵈ": 4012,
      "toUpperSet": 4013,
      "PresheafOfModules": 4014,
      "OfNeZero": 4015,
      "04": 4016,
      "bdd": 4017,
      "sumFinsupp": 4018,
      "members": 4019,
      "ann": 4020,
      "Subfamily": 4021,
      "Thru": 4022,
      "monad": 4023,
      "ofBoolAlg": 4024,
      "ilingDegree": 4025,
      "IsSeparable": 4026,
      "Nᵢ": 4027,
      "pointedToBipointed": 4028,
      "Edges": 4029,
      "Complementeds": 4030,
      "Period": 4031,
      "convexHull": 4032,
      "Codisjoint": 4033,
      "symme": 4034,
      "Absorbs": 4035,
      "Founded": 4036,
      "toDistribMulAction": 4037,
      "05": 4038,
      "MeromorphicOn": 4039,
      "rangeS": 4040,
      "toIcoMod": 4041,
      "Proper": 4042,
      "ᵃL": 4043,
      "Acc": 4044,
      "rees": 4045,
      "unitGroup": 4046,
      "Separating": 4047,
      "subsingleton": 4048,
      "connectedComponent": 4049,
      "HasLeft": 4050,
      "ments": 4051,
      "LocallyFiniteOrderTop": 4052,
      "factorThru": 4053,
      "hJ": 4054,
      "TwoP": 4055,
      "bif": 4056,
      "CokernelCofork": 4057,
      "GAlgebra": 4058,
      "toAdditive": 4059,
      "31": 4060,
      "Triang": 4061,
      "toLocallyRingedSpace": 4062,
      "FiniteKernel": 4063,
      "Sₘ": 4064,
      "toModule": 4065,
      "rational": 4066,
      "Partrec": 4067,
      "SpecialLinearGroup": 4068,
      "idempotent": 4069,
      "KernelFork": 4070,
      "CoheytingHom": 4071,
      "cay": 4072,
      "Irrational": 4073,
      "func": 4074,
      "concat": 4075,
      "ucing": 4076,
      "ack": 4077,
      "skew": 4078,
      "NormedGroup": 4079,
      "Ordnode": 4080,
      "toSemiring": 4081,
      "liftAddHom": 4082,
      "MeasurableSingleton": 4083,
      "MeasurableSingletonClass": 4084,
      "ofBoolRing": 4085,
      "HasWide": 4086,
      "rayOfNeZero": 4087,
      "thickening": 4088,
      "toNatTrans": 4089,
      "orthogonal": 4090,
      "algHom": 4091,
      "LinearOrderedCommRing": 4092,
      "symmetri": 4093,
      "stabilizer": 4094,
      "braiding": 4095,
      "ιB": 4096,
      "sep": 4097,
      "augment": 4098,
      "105552": 4099,
      "piFinset": 4100,
      "qsmul": 4101,
      "tative": 4102,
      "IsPr": 4103,
      "pand": 4104,
      "aevalTower": 4105,
      "mΩ": 4106,
      "commutator": 4107,
      "1Space": 4108,
      "Finpartition": 4109,
      "van": 4110,
      "HasStrictFDerivAt": 4111,
      "Closeds": 4112,
      "Triangular": 4113,
      "gt": 4114,
      "stalk": 4115,
      "dame": 4116,
      "ntal": 4117,
      "damental": 4118,
      "SemiconjBy": 4119,
      "Associator": 4120,
      "ZeroDivisors": 4121,
      "Equalizer": 4122,
      "ZeroLE": 4123,
      "SumLex": 4124,
      "Kae": 4125,
      "ithful": 4126,
      "hlerDifferential": 4127,
      "KaehlerDifferential": 4128,
      "linearEquiv": 4129,
      "unbot": 4130,
      "multiplicity": 4131,
      "1Lift": 4132,
      "CircleDeg": 4133,
      "CircleDeg1Lift": 4134,
      "take": 4135,
      "HasLimits": 4136,
      "FreeBicategory": 4137,
      "Faithful": 4138,
      "neighborFinset": 4139,
      "toBasis": 4140,
      "Std": 4141,
      "inverseAssociator": 4142,
      "RightHomologyData": 4143,
      "binaryProduct": 4144,
      "homo": 4145,
      "evalFrom": 4146,
      "ify": 4147,
      "charpoly": 4148,
      "PerfectClosure": 4149,
      "¬¬¬¬¬¬¬": 4150,
      "biprod": 4151,
      "IsLocallyConstant": 4152,
      "suff": 4153,
      "HeytingHom": 4154,
      "CancelMonoidWithZero": 4155,
      "toRightMoves": 4156,
      "Character": 4157,
      "Fold": 4158,
      "LeftHomologyData": 4159,
      "IsPerfectClosure": 4160,
      "cycleFactors": 4161,
      "suffi": 4162,
      "cycleFactorsFinset": 4163,
      "ZeroLEOneClass": 4164,
      "IsH": 4165,
      "normUnit": 4166,
      "hQ": 4167,
      "Subgroupoid": 4168,
      "CstarRing": 4169,
      "DistribLattice": 4170,
      "ʸᵐ": 4171,
      "ˢʸᵐ": 4172,
      "αˢʸᵐ": 4173,
      "weightedVSub": 4174,
      "mulSingle": 4175,
      "auSeq": 4176,
      "IsCauSeq": 4177,
      "foldl": 4178,
      "oul": 4179,
      "oulli": 4180,
      "210": 4181,
      "Kle": 4182,
      "latticeClosure": 4183,
      "skewAdjoint": 4184,
      "toSpanSingleton": 4185,
      "multispan": 4186,
      "NodupKeys": 4187,
      "RightIso": 4188,
      "lue": 4189,
      "OfRightIso": 4190,
      "toIsometry": 4191,
      "look": 4192,
      "decay": 4193,
      "Karoubi": 4194,
      "opLinearEquiv": 4195,
      "WellFounded": 4196,
      "IsOrtho": 4197,
      "leftUnitor": 4198,
      "bernoulli": 4199,
      "Cycles": 4200,
      "Blank": 4201,
      "Ray": 4202,
      "hSM": 4203,
      "toNonUnitalAlgHom": 4204,
      "fullSubcategory": 4205,
      "fullSubcategoryInclusion": 4206,
      "Code": 4207,
      "tsub": 4208,
      "Defin": 4209,
      "subgroupOf": 4210,
      "EDist": 4211,
      "submodule": 4212,
      "Definable": 4213,
      "minimalPeriod": 4214,
      "NonUnitalRingHom": 4215,
      "toAddMonoid": 4216,
      "QPF": 4217,
      "wp": 4218,
      "evalAt": 4219,
      "als": 4220,
      "Opcycles": 4221,
      "✝³⁵": 4222,
      "isS": 4223,
      "real": 4224,
      "separ": 4225,
      "izedModule": 4226,
      "ofUpperSet": 4227,
      "NonUnitalAlgHom": 4228,
      "AffineBasis": 4229,
      "auge": 4230,
      "selfAdjoint": 4231,
      "HasBinaryCoproducts": 4232,
      "meas": 4233,
      "atBot": 4234,
      "HomotopyCategory": 4235,
      "Rₘ": 4236,
      "PartENat": 4237,
      "symmetrization": 4238,
      "Rad": 4239,
      "Poc": 4240,
      "hham": 4241,
      "Pochham": 4242,
      "Pochhammer": 4243,
      "RightHomology": 4244,
      "pointReflection": 4245,
      "localTriv": 4246,
      "sigmaCurry": 4247,
      "Column": 4248,
      "ore": 4249,
      "LeftCancelMonoid": 4250,
      "ofPowerSeries": 4251,
      "ConnectedComponent": 4252,
      "fixedPoints": 4253,
      "monoid": 4254,
      "Generate": 4255,
      "Mᵀ": 4256,
      "expand": 4257,
      "AsBoolRing": 4258,
      "xᶜ": 4259,
      "Kᗮ": 4260,
      "tsum": 4261,
      "LinearOrderedAddCommMonoidWithTop": 4262,
      "grade": 4263,
      "CancelCommMonoid": 4264,
      "its": 4265,
      "Uncurry": 4266,
      "Inducing": 4267,
      "includeLeft": 4268,
      "¬¬¬¬¬¬¬¬¬¬¬¬¬¬¬¬": 4269,
      "Concrete": 4270,
      "show": 4271,
      "Second": 4272,
      "Covering": 4273,
      "mapIso": 4274,
      "4446": 4275,
      "ert": 4276,
      "Semilat": 4277,
      "toSublattice": 4278,
      "82": 4279,
      "lmul": 4280,
      "SecondCountableTopology": 4281,
      "HasSheaf": 4282,
      "toSeminorm": 4283,
      "OuterMeasureClass": 4284,
      "NullMeasurableSet": 4285,
      "EuclideanDomain": 4286,
      "WeakDual": 4287,
      "γi": 4288,
      "nhdsWithin": 4289,
      "Quasi": 4290,
      "homogeneous": 4291,
      "HasSheafCompose": 4292,
      "toIsometryEquiv": 4293,
      "HMul": 4294,
      "toBoolAlg": 4295,
      "ConcreteCategory": 4296,
      "degrees": 4297,
      "pmap": 4298,
      "ourier": 4299,
      "cocompact": 4300,
      "Haar": 4301,
      "edgeFinset": 4302,
      "AlgebraCat": 4303,
      "compare": 4304,
      "toQuot": 4305,
      "revert": 4306,
      "mt": 4307,
      "isSome": 4308,
      "forgetMonoidal": 4309,
      "toCocone": 4310,
      "Dir": 4311,
      "ZeroHomClass": 4312,
      "mk0": 4313,
      "lsmul": 4314,
      "₂₂": 4315,
      "itian": 4316,
      "ermitian": 4317,
      "lid": 4318,
      "StructuredArrow": 4319,
      "ListBlank": 4320,
      "IsHermitian": 4321,
      "4470": 4322,
      "t1": 4323,
      "DifferentiableOn": 4324,
      "disjUnion": 4325,
      "LawfulTraversable": 4326,
      "toFilterBasis": 4327,
      "Representation": 4328,
      "CoalgebraCat": 4329,
      "MulHomClass": 4330,
      "hickening": 4331,
      "cthickening": 4332,
      "deleteEdges": 4333,
      "absur": 4334,
      "BinaryFan": 4335,
      "absurd": 4336,
      "idist": 4337,
      "ofLE": 4338,
      "idistrib": 4339,
      "hG": 4340,
      "Fixed": 4341,
      "hausdorffEdist": 4342,
      "ConditionallyCompleteLinearOrder": 4343,
      "continuousLinearMap": 4344,
      "equivMap": 4345,
      "DerivAt": 4346,
      "Radical": 4347,
      "IsLocalRingHom": 4348,
      "emb": 4349,
      "ofLowerSet": 4350,
      "Lips": 4351,
      "Lipschitz": 4352,
      "generateFrom": 4353,
      "hMul": 4354,
      "rIn": 4355,
      "HasColimitsOfShape": 4356,
      "haveI": 4357,
      "lists": 4358,
      "IsConj": 4359,
      "IsCar": 4360,
      "H1": 4361,
      "fourier": 4362,
      "HasMap": 4363,
      "toLp": 4364,
      "MvQPF": 4365,
      "PreservesFinite": 4366,
      "aux": 4367,
      "Adjunction": 4368,
      "wide": 4369,
      "mker": 4370,
      "PNat": 4371,
      "toBialgHom": 4372,
      "toCon": 4373,
      "rim": 4374,
      "Memb": 4375,
      "spanCompIso": 4376,
      "Braiding": 4377,
      "Member": 4378,
      "L1": 4379,
      "gauge": 4380,
      "optionEquiv": 4381,
      "HalfBraiding": 4382,
      "toPerfectPairing": 4383,
      "compContinuousLinearMap": 4384,
      "Positive": 4385,
      "IsMinOn": 4386,
      "continu": 4387,
      "MulChar": 4388,
      "partial": 4389,
      "ross": 4390,
      "ιM": 4391,
      "↥⊥": 4392,
      "ane": 4393,
      "sigmaFinsuppEquiv": 4394,
      "toLinAlgEquiv": 4395,
      "ong": 4396,
      "vanish": 4397,
      "toEuclidean": 4398,
      "nonZeroDivisors": 4399,
      "119": 4400,
      "Cocycle": 4401,
      "lookup": 4402,
      "HasBasis": 4403,
      "expCoeff": 4404,
      "unitaryGroup": 4405,
      "Antisymmetrization": 4406,
      "Section": 4407,
      "Atlas": 4408,
      "nnnorm": 4409,
      "locallyFinite": 4410,
      "BFamily": 4411,
      "utative": 4412,
      "Commutative": 4413,
      "↥⊤": 4414,
      "reflect": 4415,
      "Reflexive": 4416,
      "Yoneda": 4417,
      "MapCircle": 4418,
      "expMapCircle": 4419,
      "Desc": 4420,
      "AEval": 4421,
      "PointedCone": 4422,
      "OrthonormalBasis": 4423,
      "vanishing": 4424,
      "mrange": 4425,
      "holo": 4426,
      "multin": 4427,
      "IsDiag": 4428,
      "multinomial": 4429,
      "MvPFunctor": 4430,
      "eAlgebra": 4431,
      "eneAlgebra": 4432,
      "KleeneAlgebra": 4433,
      "LiftRel": 4434,
      "Glue": 4435,
      "AddConstMapClass": 4436,
      "Coord": 4437,
      "antidistrib": 4438,
      "goto": 4439,
      "maximalIdeal": 4440,
      "denom": 4441,
      "perm": 4442,
      "goals": 4443,
      "rightUnitor": 4444,
      "Truncate": 4445,
      "augmentTruncate": 4446,
      "vanishingIdeal": 4447,
      "linearIndependent": 4448,
      "Rotation": 4449,
      "ofLeftInverse": 4450,
      "Rea": 4451,
      "zmultiples": 4452,
      "tanSubalgebra": 4453,
      "IsFixed": 4454,
      "InvolutiveStar": 4455,
      "AlgebraicIndependent": 4456,
      "pullbackCone": 4457,
      "IsCartanSubalgebra": 4458,
      "MapObj": 4459,
      "SMulRegular": 4460,
      "IsFixedPt": 4461,
      "Antiperiodic": 4462,
      "functorCategoryMonoidal": 4463,
      "ilDiv": 4464,
      "Ce": 4465,
      "AddOfLE": 4466,
      "posPart": 4467,
      "ExistsAddOfLE": 4468,
      "IsSMulRegular": 4469,
      "AngleRotation": 4470,
      "03": 4471,
      "hH": 4472,
      "onRelation": 4473,
      "CeilDiv": 4474,
      "Transformation": 4475,
      "nvar9": 4476,
      "test": 4477,
      "SemiRingCat": 4478,
      "mabs": 4479,
      "toDivInvMonoid": 4480,
      "Cᴹ": 4481,
      "Cᴹᵒᵖ": 4482,
      "51": 4483,
      "localRing": 4484,
      "invOf": 4485,
      "sumCongr": 4486,
      "dualTensorHom": 4487,
      "dirac": 4488,
      "IsTrivial": 4489,
      "IsCoprime": 4490,
      "IsLeft": 4491,
      "EdgeSet": 4492,
      "edMeasure": 4493,
      "Fl": 4494,
      "SignedMeasure": 4495,
      "IsTriangular": 4496,
      "izable": 4497,
      "IsTriangularizable": 4498,
      "fromEdgeSet": 4499,
      "hxs": 4500,
      "toOrdinal": 4501,
      "locallyRingedSpace": 4502,
      "parallelFamily": 4503,
      "sumAssoc": 4504,
      "Card": 4505,
      "Sphere": 4506,
      "Symb": 4507,
      "Bod": 4508,
      "alternating": 4509,
      "coinduced": 4510,
      "toCone": 4511,
      "Ti": 4512,
      "singleObj": 4513,
      "linearIsometry": 4514,
      "kg": 4515,
      "toIcoDiv": 4516,
      "Killing": 4517,
      "IsKilling": 4518,
      "aug": 4519,
      "214": 4520,
      "toNonarchAddGroupSeminorm": 4521,
      "PartOrd": 4522,
      "PEquiv": 4523,
      "domRestrict": 4524,
      "71": 4525,
      "vil": 4526,
      "continuousMultilinear": 4527,
      "ouvil": 4528,
      "ouville": 4529,
      "ofRat": 4530,
      "cospanCompIso": 4531,
      "ung": 4532,
      "HasImages": 4533,
      "pkg": 4534,
      "hfor": 4535,
      "FreeSemigroup": 4536,
      "actRight": 4537,
      "instOfNat": 4538,
      "rightAngleRotation": 4539,
      "vol": 4540,
      "Liouville": 4541,
      "ped": 4542,
      "toLE": 4543,
      "fromRows": 4544,
      "kho": 4545,
      "birkho": 4546,
      "birkhoff": 4547,
      "aure": 4548,
      "familyOfBFamily": 4549,
      "aurent": 4550,
      "HasCompl": 4551,
      "ofEq": 4552,
      "ll": 4553,
      "139": 4554,
      "BaseChange": 4555,
      "extension": 4556,
      "kern": 4557,
      "CoproductIso": 4558,
      "annihilator": 4559,
      "OfFin": 4560,
      "Discon": 4561,
      "actLeft": 4562,
      "hforward": 4563,
      "ihom": 4564,
      "HasRightHomology": 4565,
      "ationQuotient": 4566,
      "SeparationQuotient": 4567,
      "independent": 4568,
      "AddCommMonoidWithOne": 4569,
      "homOfLE": 4570,
      "iteratedDerivWithin": 4571,
      "terior": 4572,
      "prim": 4573,
      "hΦ": 4574,
      "NonUnitalSeminormedRing": 4575,
      "HasMulti": 4576,
      "Cofi": 4577,
      "UB": 4578,
      "αs": 4579,
      "coequalizer": 4580,
      "rs": 4581,
      "filterMap": 4582,
      "pushoutCocone": 4583,
      "continuousMultilinearCurry": 4584,
      "genv": 4585,
      "mapCone": 4586,
      "under": 4587,
      "OfIsCompl": 4588,
      "81": 4589,
      "uT": 4590,
      "ingTi": 4591,
      "ingTime": 4592,
      "BEq": 4593,
      "So": 4594,
      "IsRoot": 4595,
      "ghtProfinite": 4596,
      "toLinearPMap": 4597,
      "FilterBasis": 4598,
      "natTra": 4599,
      "natTrailingDegree": 4600,
      "CountablyGenerated": 4601,
      "rwitz": 4602,
      "ofLawson": 4603,
      "sumLex": 4604,
      "withBot": 4605,
      "RealProd": 4606,
      "limsup": 4607,
      "Dᵒᵖ": 4608,
      "gₗ": 4609,
      "Reduced": 4610,
      "✝³⁶": 4611,
      "alizer": 4612,
      "truncate": 4613,
      "toAlternatingMap": 4614,
      "inrHom": 4615,
      "mulVec": 4616,
      "eqToIso": 4617,
      "nect": 4618,
      "ZeroMorphisms": 4619,
      "finTwo": 4620,
      "suffices": 4621,
      "PreservesZeroMorphisms": 4622,
      "boundari": 4623,
      "boundaries": 4624,
      "piLp": 4625,
      "LiouvilleWith": 4626,
      "realize": 4627,
      "Contra": 4628,
      "ich": 4629,
      "irrefl": 4630,
      "spec": 4631,
      "inlAlgHom": 4632,
      "constVAdd": 4633,
      "RingCon": 4634,
      "ylor": 4635,
      "₃✝¹": 4636,
      "lying": 4637,
      "relabel": 4638,
      "underlying": 4639,
      "UnitAddCircle": 4640,
      "FloorDiv": 4641,
      "IsIntegralClosure": 4642,
      "binaryCoproductIso": 4643,
      "ιMulti": 4644,
      "rich": 4645,
      "compLeft": 4646,
      "unitor": 4647,
      "Enrich": 4648,
      "ins": 4649,
      "equivalence": 4650,
      "IsMaxOn": 4651,
      "noncommProd": 4652,
      "41": 4653,
      "restr": 4654,
      "190": 4655,
      "fint": 4656,
      "eventuallyEq": 4657,
      "rator": 4658,
      "lsingle": 4659,
      "Splits": 4660,
      "SDiff": 4661,
      "jacobi": 4662,
      "rb": 4663,
      "fiber": 4664,
      "achart": 4665,
      "edges": 4666,
      "TrivialStar": 4667,
      "induce": 4668,
      "whiskeringRight": 4669,
      "mapHom": 4670,
      "H0": 4671,
      "92": 4672,
      "toIocDiv": 4673,
      "Connected": 4674,
      "Sch": 4675,
      "toStarSubalgebra": 4676,
      "Totally": 4677,
      "HasEqualizer": 4678,
      "PairwiseDisjoint": 4679,
      "cf": 4680,
      "Constants": 4681,
      "Reverse": 4682,
      "ichlet": 4683,
      "NonUnitalStarAlgHom": 4684,
      "isoApp": 4685,
      "Cofan": 4686,
      "MonoOver": 4687,
      "Homotopic": 4688,
      "PartitionOfUnity": 4689,
      "GMul": 4690,
      "HSMul": 4691,
      "toNorm": 4692,
      "AddValuation": 4693,
      "izations": 4694,
      "Localizations": 4695,
      "vecMul": 4696,
      "fintype": 4697,
      "tichain": 4698,
      "Antichain": 4699,
      "subtypePerm": 4700,
      "condexp": 4701,
      "Dirichlet": 4702,
      "DirichletCharacter": 4703,
      "NNNorm": 4704,
      "XIsoOfEq": 4705,
      "Aᴴ": 4706,
      "Nonsingular": 4707,
      "MemTrivialization": 4708,
      "MemTrivializationAtlas": 4709,
      "srangeRestrict": 4710,
      "2309": 4711,
      "mapEquiv": 4712,
      "178": 4713,
      "uH": 4714,
      "reg": 4715,
      "IsLUB": 4716,
      "Mᴴ": 4717,
      "Except": 4718,
      "PLift": 4719,
      "sigmaUncurry": 4720,
      "normalizer": 4721,
      "HasBinaryProducts": 4722,
      "Jord": 4723,
      "Jordan": 4724,
      "eqv": 4725,
      "kernImage": 4726,
      "cells": 4727,
      "disjiUnion": 4728,
      "IsComplement": 4729,
      "01": 4730,
      "NormalWord": 4731,
      "TotallyDiscon": 4732,
      "padicVal": 4733,
      "castPred": 4734,
      "Color": 4735,
      "toCotangent": 4736,
      "Side": 4737,
      "ofLower": 4738,
      "DefinableSet": 4739,
      "toUpper": 4740,
      "IsNon": 4741,
      "ulus": 4742,
      "bₘ": 4743,
      "IsSymmetric": 4744,
      "zeroIso": 4745,
      "Cal": 4746,
      "culus": 4747,
      "qᵢ": 4748,
      "component": 4749,
      "StrictAnti": 4750,
      "Calculus": 4751,
      "HasBinaryBiproducts": 4752,
      "monadLift": 4753,
      "IsNonZero": 4754,
      "Ordering": 4755,
      "LimitCone": 4756,
      "Flag": 4757,
      "tivity": 4758,
      "associa": 4759,
      "UpTo": 4760,
      "associativity": 4761,
      "domCongr": 4762,
      "dest": 4763,
      "hf0": 4764,
      "QuotEquiv": 4765,
      "toLower": 4766,
      "Elim": 4767,
      "nim": 4768,
      "Resolution": 4769,
      "PMOD": 4770,
      "IsHomogeneous": 4771,
      "ZeroAt": 4772,
      "setTo": 4773,
      "equivRealProd": 4774,
      "Preimage": 4775,
      "adjugate": 4776,
      "toL1": 4777,
      "ConditionallyCompleteLinearOrderedField": 4778,
      "complet": 4779,
      "toQuadraticForm": 4780,
      "AffineIndependent": 4781,
      "Source": 4782,
      "Circ": 4783,
      "hζ": 4784,
      "ift": 4785,
      "ulift": 4786,
      "RingIso": 4787,
      "OrderRingIso": 4788,
      "FinBddDistLat": 4789,
      "toHomotopy": 4790,
      "mkPi": 4791,
      "completed": 4792,
      "UnitHom": 4793,
      "eA": 4794,
      "FinBoolAlg": 4795,
      "Out": 4796,
      "Squarefree": 4797,
      "functorPullback": 4798,
      "lieIdeal": 4799,
      "Imp": 4800,
      "107": 4801,
      "GMonoid": 4802,
      "mapRingHom": 4803,
      "ContinuousOrderHom": 4804,
      "NNRatCast": 4805,
      "uence": 4806,
      "196": 4807,
      "T1Space": 4808,
      "bin": 4809,
      "eraseNone": 4810,
      "compContinuous": 4811,
      "use": 4812,
      "ofScott": 4813,
      "ZeroMonoid": 4814,
      "SubNegZeroMonoid": 4815,
      "ContinuousFunction": 4816,
      "finTwoProd": 4817,
      "ProdFinsupp": 4818,
      "RatCast": 4819,
      "AddEquivProdFinsupp": 4820,
      "sumFinsuppAddEquivProdFinsupp": 4821,
      "ofInjective": 4822,
      "91": 4823,
      "toOpen": 4824,
      "hπ": 4825,
      "Comon": 4826,
      "HasLimitsOfShape": 4827,
      "ProdComm": 4828,
      "ProdProdComm": 4829,
      "prodProdProdComm": 4830,
      "lieIdealSubalgebra": 4831,
      "divX": 4832,
      "bicone": 4833,
      "spectrum": 4834,
      "powersetCard": 4835,
      "bipointedToPointedSnd": 4836,
      "factorThruImage": 4837,
      "ofQuaternion": 4838,
      "toAntisymmetrization": 4839,
      "vaddConst": 4840,
      "F0": 4841,
      "P0": 4842,
      "getLast": 4843,
      "ses": 4844,
      "rOut": 4845,
      "hammingNorm": 4846,
      "CompleteLat": 4847,
      "Bilinear": 4848,
      "IsPRadical": 4849,
      "untop": 4850,
      "toBoolRing": 4851,
      "irst": 4852,
      "Colimits": 4853,
      "StrictOrderedCommSemiring": 4854,
      "02": 4855,
      "art": 4856,
      "opcyclesMap": 4857,
      "MOD": 4858,
      "arct": 4859,
      "toQuaternion": 4860,
      "toEuclideanLin": 4861,
      "arctan": 4862,
      "ection": 4863,
      "indelof": 4864,
      "gf": 4865,
      "sumAddHom": 4866,
      "ableChange": 4867,
      "hfx": 4868,
      "Homs": 4869,
      "CentralSeries": 4870,
      "ShrinkHoms": 4871,
      "GameAdd": 4872,
      "rins": 4873,
      "intrins": 4874,
      "ToKernel": 4875,
      "intrinsic": 4876,
      "cover": 4877,
      "HasFDerivAtFilter": 4878,
      "m1": 4879,
      "Diffeomorph": 4880,
      "AntitoneOn": 4881,
      "PiFinsupp": 4882,
      "ChainComplex": 4883,
      "136": 4884,
      "Separated": 4885,
      "DualNumber": 4886,
      "ᵒᵖᵒᵖ": 4887,
      "Vari": 4888,
      "IsAt": 4889,
      "Meas": 4890,
      "StarConvex": 4891,
      "put": 4892,
      "dualCo": 4893,
      "compContinuousMultilinearMap": 4894,
      "toNonUnitalRingHom": 4895,
      "lice": 4896,
      "toLaurent": 4897,
      "imageToKernel": 4898,
      "IsTrans": 4899,
      "nnabs": 4900,
      "toTopCat": 4901,
      "PInfty": 4902,
      "Hf": 4903,
      "Ore": 4904,
      "compRight": 4905,
      "123": 4906,
      "MeasureSpace": 4907,
      "LawfulFunctor": 4908,
      "powHalf": 4909,
      "IsRight": 4910,
      "gram": 4911,
      "SubNegMonoid": 4912,
      "continuousAt": 4913,
      "IntegrableOn": 4914,
      "ifi": 4915,
      "subtypeL": 4916,
      "pushforward": 4917,
      "₁⁰": 4918,
      "toMatrixAlgEquiv": 4919,
      "mapBifunctor": 4920,
      "≃⋆": 4921,
      "terminal": 4922,
      "midt": 4923,
      "Schmidt": 4924,
      "gramSchmidt": 4925,
      "140": 4926,
      "Arity": 4927,
      "MonotoneOn": 4928,
      "nectedSpace": 4929,
      "fix": 4930,
      "Theta": 4931,
      "withTopEquiv": 4932,
      "LequivProd": 4933,
      "sumArrowLequivProd": 4934,
      "sumArrowLequivProdArrow": 4935,
      "Weights": 4936,
      "zipWith": 4937,
      "Solution": 4938,
      "ning": 4939,
      "hβ": 4940,
      "formPerm": 4941,
      "RecOn": 4942,
      "arccos": 4943,
      "enti": 4944,
      "109": 4945,
      "Plane": 4946,
      "OnFun": 4947,
      "QuadraticModuleCat": 4948,
      "positive": 4949,
      "Transvers": 4950,
      "128": 4951,
      "ContinuousOpen": 4952,
      "IsMinFilter": 4953,
      "hausdorffDist": 4954,
      "ᵃˡ": 4955,
      "ᵐᵒ": 4956,
      "ᵐⁱ": 4957,
      "ᵒᵐⁱ": 4958,
      "ⁿᵒᵐⁱ": 4959,
      "asses": 4960,
      "aleph0": 4961,
      "caleRoots": 4962,
      "ᵐᵒⁿᵒᵐⁱ": 4963,
      "ᵐᵒⁿᵒᵐⁱᵃˡ": 4964,
      "ContinuousOpenMap": 4965,
      "IsAdd": 4966,
      "rβ": 4967,
      "MonoidalObject": 4968,
      "UniformOnFun": 4969,
      "NormalMonoidalObject": 4970,
      "path": 4971,
      "129": 4972,
      "toLaw": 4973,
      "Exponent": 4974,
      "ContinuousLinearEquiv": 4975,
      "toScott": 4976,
      "toContinuousMultilinearMap": 4977,
      "jacobiTheta": 4978,
      "cofork": 4979,
      "Sequence": 4980,
      "EnrichedCategory": 4981,
      "toAddCommGroup": 4982,
      "stop": 4983,
      "unpair": 4984,
      "piFan": 4985,
      "DiscreteComp": 4986,
      "coneDiscreteComp": 4987,
      "toIntSubmodule": 4988,
      "new": 4989,
      "sublists": 4990,
      "eqLocus": 4991,
      "DMatrix": 4992,
      "H2": 4993,
      "adjunction": 4994,
      "f1": 4995,
      "ymm": 4996,
      "aris": 4997,
      "toRing": 4998,
      "SameRay": 4999,
      "tMax": 5000,
      "enter": 5001,
      "tMin": 5002,
      "FintypeCat": 5003,
      "HasLeftHomology": 5004,
      "arison": 5005,
      "hinj": 5006,
      "sme": 5007,
      "smeval": 5008,
      "Lequiv": 5009,
      "Continu": 5010,
      "hfq": 5011,
      "mapId": 5012,
      "pderiv": 5013,
      "derived": 5014,
      "hli": 5015,
      "edFraction": 5016,
      "Coequalizer": 5017,
      "GeneralizedContinu": 5018,
      "GeneralizedContinuedFraction": 5019,
      "cated": 5020,
      "HahnModule": 5021,
      "BumpCovering": 5022,
      "floor": 5023,
      "ᵈᵐ": 5024,
      "hvw": 5025,
      "EquivProdArrow": 5026,
      "sumArrowEquivProdArrow": 5027,
      "rwitzZeta": 5028,
      "ᵈᵐᵃ": 5029,
      "pp": 5030,
      "prodMkRight": 5031,
      "Nth": 5032,
      "alance": 5033,
      "149": 5034,
      "bination": 5035,
      "NormedLinearOrderedField": 5036,
      "118": 5037,
      "cke": 5038,
      "cket": 5039,
      "Bit": 5040,
      "elim0": 5041,
      "u𝕜": 5042,
      "andard": 5043,
      "leSymb": 5044,
      "stdBasisMatrix": 5045,
      "separable": 5046,
      "244": 5047,
      "Elements": 5048,
      "Reach": 5049,
      "aroot": 5050,
      "degenerate": 5051,
      "LeftInvOn": 5052,
      "aroots": 5053,
      "functorCategoryEquivalence": 5054,
      "prodMkLeft": 5055,
      "wι": 5056,
      "uple": 5057,
      "Tuple": 5058,
      "ctPair": 5059,
      "MonoidalCategoryStruct": 5060,
      "175": 5061,
      "continuant": 5062,
      "PFun": 5063,
      "nonMember": 5064,
      "nonMemberSubfamily": 5065,
      "asc": 5066,
      "continuants": 5067,
      "fieldRange": 5068,
      "137": 5069,
      "lifts": 5070,
      "Antivary": 5071,
      "HaarMeasure": 5072,
      "Center": 5073,
      "fromColumn": 5074,
      "fromColumns": 5075,
      "Exchange": 5076,
      "Covers": 5077,
      "ExchangeProperty": 5078,
      "195": 5079,
      "BoundedAdd": 5080,
      "mkOfCompact": 5081,
      "Nondegenerate": 5082,
      "hmono": 5083,
      "FractPair": 5084,
      "RestrictScalars": 5085,
      "divisorsAntidiagonal": 5086,
      "scaleRoots": 5087,
      "✝³⁷": 5088,
      "JordanDecomposition": 5089,
      "utations": 5090,
      "toMeasure": 5091,
      "Rack": 5092,
      "IsAntichain": 5093,
      "255": 5094,
      "IntFractPair": 5095,
      "sumIn": 5096,
      "tfa": 5097,
      "orderIsoSumLex": 5098,
      "tfae": 5099,
      "orderIsoSumLexPUnit": 5100,
      "toRows": 5101,
      "derivedSeries": 5102,
      "embDomain": 5103,
      "WType": 5104,
      "IsConjExponent": 5105,
      "destruct": 5106,
      "ZPow": 5107,
      "homologyMap": 5108,
      "OfArity": 5109,
      "strong": 5110,
      "ZeroAtInfty": 5111,
      "Apply": 5112,
      "castAdd": 5113,
      "nonunits": 5114,
      "evenOdd": 5115,
      "218": 5116,
      "HNot": 5117,
      "120": 5118,
      "Univ": 5119,
      "160": 5120,
      "umcenter": 5121,
      "rad": 5122,
      "killing": 5123,
      "Combination": 5124,
      "affineCombination": 5125,
      "IsMaxFilter": 5126,
      "nonpos": 5127,
      "hammingDist": 5128,
      "UInt": 5129,
      "sym2": 5130,
      "genspace": 5131,
      "IsSFiniteKernel": 5132,
      "cycleType": 5133,
      "PositiveCompacts": 5134,
      "ofBijective": 5135,
      "ConvexOn": 5136,
      "clift": 5137,
      "maxTriv": 5138,
      "OfFintype": 5139,
      "leftOp": 5140,
      "ringChar": 5141,
      "action": 5142,
      "Maximal": 5143,
      "LeftFraction": 5144,
      "infDist": 5145,
      "extendScalars": 5146,
      "DF": 5147,
      "PreservesLimit": 5148,
      "normalizedFactors": 5149,
      "functorCategoryMonoidalEquivalence": 5150,
      "dProd": 5151,
      "powerSeries": 5152,
      "primeCompl": 5153,
      "htu": 5154,
      "MulActionHom": 5155,
      "centroid": 5156,
      "cycleOf": 5157,
      "SummableFamily": 5158,
      "Residue": 5159,
      "hδ": 5160,
      "negPart": 5161,
      "preΨ": 5162,
      "h3": 5163,
      "ofι": 5164,
      "x1": 5165,
      "dualNumber": 5166,
      "RegularNormedAlgebra": 5167,
      "GLB": 5168,
      "dualNumberEquiv": 5169,
      "isometryOf": 5170,
      "linearProj": 5171,
      "UniformSpaceCat": 5172,
      "Ope": 5173,
      "IsLinear": 5174,
      "IsReflexive": 5175,
      "GaloisCategory": 5176,
      "OfCompact": 5177,
      "BoundedOfCompact": 5178,
      "ProperCone": 5179,
      "ONot": 5180,
      "ONote": 5181,
      "addVal": 5182,
      "Monovary": 5183,
      "hunion": 5184,
      "13126": 5185,
      "headI": 5186,
      "ReducedWord": 5187,
      "Clique": 5188,
      "Lead": 5189,
      "Operator": 5190,
      "SetSemiring": 5191,
      "blsub": 5192,
      "vable": 5193,
      "hbot": 5194,
      "329": 5195,
      "yn": 5196,
      "fn": 5197,
      "IsAlgebraic": 5198,
      "finSucc": 5199,
      "exponent": 5200,
      "OpenCover": 5201,
      "mv": 5202,
      "ResidueField": 5203,
      "Lm": 5204,
      "tensorLeft": 5205,
      "toLawson": 5206,
      "61": 5207,
      "Coyoneda": 5208,
      "GLPos": 5209,
      "pointedToBipointedFst": 5210,
      "anticomm": 5211,
      "Cross": 5212,
      "CrossingTime": 5213,
      "ers": 5214,
      "Diagram": 5215,
      "eraseLead": 5216,
      "lastFun": 5217,
      "iative": 5218,
      "Classes": 5219,
      "toSemigroup": 5220,
      "OreSet": 5221,
      "ov": 5222,
      "toSubfield": 5223,
      "ContDiffBump": 5224,
      "Associative": 5225,
      "isClopen": 5226,
      "SameCycle": 5227,
      "wards": 5228,
      "liminf": 5229,
      "DualCone": 5230,
      "innerDualCone": 5231,
      "Equ": 5232,
      "Lindelof": 5233,
      "coprodᵢ": 5234,
      "isP": 5235,
      "108": 5236,
      "170": 5237,
      "la": 5238,
      "197": 5239,
      "ein": 5240,
      "preadditive": 5241,
      "IsEx": 5242,
      "Rₛ": 5243,
      "sl": 5244,
      "dualCoannihilator": 5245,
      "215": 5246,
      "negOne": 5247,
      "negOnePow": 5248,
      "mapM": 5249,
      "IsPrincipal": 5250,
      "bipointedToPointedFst": 5251,
      "Body": 5252,
      "radical": 5253,
      "AffineEquiv": 5254,
      "Lim": 5255,
      "ContinuousMapClass": 5256,
      "Uniformly": 5257,
      "finSuccEquiv": 5258,
      "nvel": 5259,
      "isColimit": 5260,
      "Equation": 5261,
      "HasImageMap": 5262,
      "HasMultiequalizer": 5263,
      "instLE": 5264,
      "rootSpace": 5265,
      "ofCauchy": 5266,
      "OrderClosed": 5267,
      "OrderClosedTopology": 5268,
      "f2": 5269,
      "tio": 5270,
      "Emb": 5271,
      "5838": 5272,
      "liftHom": 5273,
      "wπ": 5274,
      "Comparison": 5275,
      "integrable": 5276,
      "toSigma": 5277,
      "GlueData": 5278,
      "Exterior": 5279,
      "↑↑↑↑↑↑↑↑↑↑↑↑↑↑↑↑↑↑↑↑↑↑↑↑↑↑↑↑↑↑↑↑↑↑↑↑↑↑↑↑↑↑↑↑↑↑↑↑↑↑↑↑↑↑↑↑↑↑↑↑↑↑↑↑": 5280,
      "IsGLB": 5281,
      "ContinuousInv": 5282,
      "ExteriorAlgebra": 5283,
      "haa": 5284,
      "hμs": 5285,
      "FGModuleCatDual": 5286,
      "way": 5287,
      "invertible": 5288,
      "prodAssoc": 5289,
      "106": 5290,
      "insertNone": 5291,
      "toOpposite": 5292,
      "residue": 5293,
      "toENat": 5294,
      "LightProfinite": 5295,
      "ofπ": 5296,
      "hι": 5297,
      "Away": 5298,
      "oadd": 5299,
      "Seg": 5300,
      "Transpose": 5301,
      "domCoprod": 5302,
      "reate": 5303,
      "reatest": 5304,
      "sec": 5305,
      "corec": 5306,
      "toSimpleFunc": 5307,
      "CoalgHom": 5308,
      "hsp": 5309,
      "funUnique": 5310,
      "OfLeft": 5311,
      "uniqueProd": 5312,
      "mvPolynomial": 5313,
      "455": 5314,
      "hSMul": 5315,
      "DirectedOn": 5316,
      "piLpCongrRight": 5317,
      "Coloring": 5318,
      "ComplexEmbedding": 5319,
      "stopped": 5320,
      "yclotomicExtension": 5321,
      "AdicCauchy": 5322,
      "locallyRingedSpaceObj": 5323,
      "mulVecLin": 5324,
      "a0": 5325,
      "sk": 5326,
      "coprodAssoc": 5327,
      "Cocompact": 5328,
      "ofModule": 5329,
      "DistribMulActionHom": 5330,
      "Von": 5331,
      "setPreimage": 5332,
      "127": 5333,
      "toLT": 5334,
      "Sheafify": 5335,
      "OneHomClass": 5336,
      "equivMapDomain": 5337,
      "CocompactMap": 5338,
      "toSMul": 5339,
      "↓∩": 5340,
      "toMonoid": 5341,
      "IsCyclotomicExtension": 5342,
      "TopEquiv": 5343,
      "Derived": 5344,
      "hPz": 5345,
      "ContravariantClass": 5346,
      "HB": 5347,
      "ofMap": 5348,
      "ued": 5349,
      "189": 5350,
      "IsCycle": 5351,
      "disjSum": 5352,
      "upwards": 5353,
      "157": 5354,
      "Array": 5355,
      "114": 5356,
      "ConjClasses": 5357,
      "113": 5358,
      "ofMulDistribMulAction": 5359,
      "sg": 5360,
      "IsPoly": 5361,
      "graphOn": 5362,
      "character": 5363,
      "mann": 5364,
      "remove": 5365,
      "verge": 5366,
      "sumLexLift": 5367,
      "vergent": 5368,
      "Associated": 5369,
      "faces": 5370,
      "smulₛₗ": 5371,
      "rat": 5372,
      "PowerBasis": 5373,
      "Nim": 5374,
      "subtypeEquiv": 5375,
      "OfLeftIso": 5376,
      "erable": 5377,
      "umerable": 5378,
      "lb": 5379,
      "CommSemiRingCat": 5380,
      "hts": 5381,
      "SplittingField": 5382,
      "Torsion": 5383,
      "Denumerable": 5384,
      "HasEqualizers": 5385,
      "427": 5386,
      "Fundamental": 5387,
      "composePath": 5388,
      "toBlocks": 5389,
      "toIsMulHom": 5390,
      "mapHomologicalComplex": 5391,
      "toAffineIsometry": 5392,
      "Ae": 5393,
      "sc": 5394,
      "ᶜˢ": 5395,
      "Compa": 5396,
      "elt": 5397,
      "coeffs": 5398,
      "1930": 5399,
      "GroupNorm": 5400,
      "¬¬∃": 5401,
      "Transversal": 5402,
      "199": 5403,
      "Reachable": 5404,
      "jes": 5405,
      "¬¬¬↑": 5406,
      "Cocycles": 5407,
      "eltjes": 5408,
      "UniqueDiffWithinAt": 5409,
      "bijectiveRight": 5410,
      "116": 5411,
      "UInt8": 5412,
      "cation": 5413,
      "nnqsmul": 5414,
      "homOf": 5415,
      "148": 5416,
      "eigenv": 5417,
      "piCongrLeft": 5418,
      "canon": 5419,
      "canonical": 5420,
      "Clopens": 5421,
      "Compatible": 5422,
      "prodCongrRight": 5423,
      "incipalIdeal": 5424,
      "toAddGroup": 5425,
      "mersion": 5426,
      "Immersion": 5427,
      "section": 5428,
      "TopCoe": 5429,
      "recTopCoe": 5430,
      "revAt": 5431,
      "HasStrictDerivAt": 5432,
      "tangentBundle": 5433,
      "lec": 5434,
      "algEquiv": 5435,
      "DirectedSystem": 5436,
      "pOpcycles": 5437,
      "LinearIsometry": 5438,
      "RightInvOn": 5439,
      "toLinearMapRight": 5440,
      "reindexLinearEquiv": 5441,
      "eqOn": 5442,
      "esymm": 5443,
      "168": 5444,
      "Line": 5445,
      "disc": 5446,
      "hbc": 5447,
      "algebraMapSubmonoid": 5448,
      "147": 5449,
      "toNonUnitalSemiring": 5450,
      "cardLindelof": 5451,
      "PicardLindelof": 5452,
      "188": 5453,
      "fpowerSeries": 5454,
      "herm": 5455,
      "u4": 5456,
      "u5": 5457,
      "IsGalois": 5458,
      "hermite": 5459,
      "padicNorm": 5460,
      "Insert": 5461,
      "primeFactors": 5462,
      "pointedToBipointedSnd": 5463,
      "253": 5464,
      "shiftIso": 5465,
      "IsLeftRegular": 5466,
      "GSemiring": 5467,
      "OfPoint": 5468,
      "weightedVSubOfPoint": 5469,
      "supported": 5470,
      "163": 5471,
      "GSMul": 5472,
      "uncurrySum": 5473,
      "uish": 5474,
      "inguish": 5475,
      "EquivOfLocalizations": 5476,
      "inguished": 5477,
      "IsOfFin": 5478,
      "115": 5479,
      "Multiplicity": 5480,
      "rootMultiplicity": 5481,
      "IsOpenImmersion": 5482,
      "ittVector": 5483,
      "WittVector": 5484,
      "toWord": 5485,
      "pushoutCoconeOfRightIso": 5486,
      "LCongr": 5487,
      "slas": 5488,
      "RingQuot": 5489,
      "103": 5490,
      "domLCongr": 5491,
      "slash": 5492,
      "rootsOfUnity": 5493,
      "covering": 5494,
      "isPGroup": 5495,
      "nvar10": 5496,
      "SupIrred": 5497,
      "Wbtw": 5498,
      "ret": 5499,
      "AddCancelCommMonoid": 5500,
      "distinguished": 5501,
      "rels": 5502,
      "bc": 5503,
      "funCongrLeft": 5504,
      "TwoPF": 5505,
      "pointedToTwoPF": 5506,
      "pointedToTwoPFst": 5507,
      "linearProjOfIsCompl": 5508,
      "¬∅": 5509,
      "spanSingleton": 5510,
      "All": 5511,
      "toNNRat": 5512,
      "noncommCoprod": 5513,
      "IsMaximal": 5514,
      "simpleFunc": 5515,
      "bp": 5516,
      "measurableEquiv": 5517,
      "150": 5518,
      "ExistsMaximal": 5519,
      "SubsetProperty": 5520,
      "ExistsMaximalSubsetProperty": 5521,
      "ice": 5522,
      "ined": 5523,
      "atlas": 5524,
      "invol": 5525,
      "El": 5526,
      "NormedStar": 5527,
      "NormedStarGroup": 5528,
      "mble": 5529,
      "zp": 5530,
      "toCompl": 5531,
      "characterSpace": 5532,
      "T0": 5533,
      "succPNat": 5534,
      "156": 5535,
      "rightOp": 5536,
      "FiberFunctor": 5537,
      "230": 5538,
      "hsurj": 5539,
      "oung": 5540,
      "prodCongr": 5541,
      "ᶜᶜᶜ": 5542,
      "alternatingProd": 5543,
      "outParam": 5544,
      "AsBoolAlg": 5545,
      "inrₗ": 5546,
      "Young": 5547,
      "SupCat": 5548,
      "SemilatSupCat": 5549,
      "OptionT": 5550,
      "Content": 5551,
      "Equi": 5552,
      "ratio": 5553,
      "hfi": 5554,
      "117": 5555,
      "sInfClosed": 5556,
      "SigmaMap": 5557,
      "ascPochhammer": 5558,
      "Hg": 5559,
      "compHaus": 5560,
      "IsAddHaarMeasure": 5561,
      "fundamental": 5562,
      "isEmpty": 5563,
      "IsBot": 5564,
      "iIndep": 5565,
      "TotalComplexShape": 5566,
      "optionSubtype": 5567,
      "IsTop": 5568,
      "158": 5569,
      "choice": 5570,
      "ᘁX": 5571,
      "alanced": 5572,
      "involute": 5573,
      "HasF": 5574,
      "spanning": 5575,
      "bsup": 5576,
      "toFunLike": 5577,
      "equivPair": 5578,
      "Taylor": 5579,
      "SubringClass": 5580,
      "ContDiffWithinAt": 5581,
      "MulMemClass": 5582,
      "CancelMul": 5583,
      "Mᵈᵐᵃ": 5584,
      "sigmaFinsuppEquivDFinsupp": 5585,
      "536": 5586,
      "dig": 5587,
      "hgm": 5588,
      "wi": 5589,
      "Triangles": 5590,
      "eigenvector": 5591,
      "228": 5592,
      "toOfNat": 5593,
      "clear": 5594,
      "toNatCast": 5595,
      "547": 5596,
      "IsSucc": 5597,
      "toMeasurable": 5598,
      "String": 5599,
      "Standard": 5600,
      "pimage": 5601,
      "154": 5602,
      "NumDen": 5603,
      "SameDeg": 5604,
      "NumDenSameDeg": 5605,
      "icPoint": 5606,
      "ofSubsingleton": 5607,
      "Extend": 5608,
      "IsLocalizedModule": 5609,
      "138": 5610,
      "lowerCentralSeries": 5611,
      "Idempotent": 5612,
      "conjugate": 5613,
      "FullSubcategory": 5614,
      "EPair": 5615,
      "FEPair": 5616,
      "IsPre": 5617,
      "167": 5618,
      "QuotientGroup": 5619,
      "LSeries": 5620,
      "346": 5621,
      "SR": 5622,
      "chainTop": 5623,
      "fv": 5624,
      "LocalizedModule": 5625,
      "IsComplemented": 5626,
      "allEq": 5627,
      "sSupClosed": 5628,
      "memberSubfamily": 5629,
      "LI": 5630,
      "submonoid": 5631,
      "exacts": 5632,
      "IsClopen": 5633,
      "Eval": 5634,
      "ai": 5635,
      "toConvexCone": 5636,
      "bitm1": 5637,
      "nfp": 5638,
      "itting": 5639,
      "getI": 5640,
      "200": 5641,
      "ofUpper": 5642,
      "208": 5643,
      "ZeroAtInftyContinuousMapClass": 5644,
      "xy": 5645,
      "idRel": 5646,
      "digits": 5647,
      "Fac": 5648,
      "hψ": 5649,
      "ofVector": 5650,
      "pullbackConeOfRightIso": 5651,
      "equivRealProdCLM": 5652,
      "Frobenius": 5653,
      "Sci": 5654,
      "dite": 5655,
      "fic": 5656,
      "IsIdempotent": 5657,
      "entific": 5658,
      "Scientific": 5659,
      "expOrderIso": 5660,
      "addLeft": 5661,
      "normal": 5662,
      "mkMonoidHom": 5663,
      "IsZero": 5664,
      "shiftFunctorAdd": 5665,
      "ToCompHaus": 5666,
      "UniformAddGroup": 5667,
      "updateRow": 5668,
      "toDualTopEquiv": 5669,
      "169": 5670,
      "iterateFrobenius": 5671,
      "HasCokernels": 5672,
      "iic": 5673,
      "codisjoint": 5674,
      "ceil": 5675,
      "Envel": 5676,
      "sf": 5677,
      "Finmap": 5678,
      "kerLift": 5679,
      "special": 5680,
      "FiberBundleCore": 5681,
      "bijectiveLeft": 5682,
      "HImp": 5683,
      "Prefunctor": 5684,
      "coeMulHom": 5685,
      "hUV": 5686,
      "NormedGroupCat": 5687,
      "piCurry": 5688,
      "SemiNormedGroupCat": 5689,
      "CLE": 5690,
      "permutations": 5691,
      "Segment": 5692,
      "constVSub": 5693,
      "precomp": 5694,
      "insertNth": 5695,
      "subgraph": 5696,
      "toReducedWord": 5697,
      "tsupport": 5698,
      "¬¬∀": 5699,
      "pretrivializationAt": 5700,
      "HomologyMap": 5701,
      "binaryProductCone": 5702,
      "compStarAlgHom": 5703,
      "258": 5704,
      "distinguishedTriangles": 5705,
      "toSubtype": 5706,
      "hEF": 5707,
      "eltjesFunction": 5708,
      "429": 5709,
      "orderEmbedding": 5710,
      "172": 5711,
      "⁻¹⁻¹⁻¹⁻¹⁻¹": 5712,
      "toLeftMovesNeg": 5713,
      "uot": 5714,
      "incipalIdealRing": 5715,
      "ZNum": 5716,
      "180": 5717,
      "WidePullback": 5718,
      "LipschitzWith": 5719,
      "onFunction": 5720,
      "letI": 5721,
      "IsPrincipalIdealRing": 5722,
      "T0Space": 5723,
      "IsFiniteKernel": 5724,
      "Dig": 5725,
      "vi": 5726,
      "key": 5727,
      "lic": 5728,
      "166": 5729,
      "birkhoffFinset": 5730,
      "Digits": 5731,
      "Comma": 5732,
      "AEDisjoint": 5733,
      "coeFn": 5734,
      "Semiq": 5735,
      "Semiquot": 5736,
      "dicate": 5737,
      "quotQuotEquiv": 5738,
      "toAddCommMonoid": 5739,
      "descPochhammer": 5740,
      "tensorHom": 5741,
      "differen": 5742,
      "inate": 5743,
      "146": 5744,
      "HM": 5745,
      "hsC": 5746,
      "226": 5747,
      "Many": 5748,
      "VariableChange": 5749,
      "EM": 5750,
      "AssocQuotient": 5751,
      "H3": 5752,
      "opRingEquiv": 5753,
      "hST": 5754,
      "Vector3": 5755,
      "scan": 5756,
      "testBit": 5757,
      "itPlane": 5758,
      "ofDigits": 5759,
      "slitPlane": 5760,
      "isNone": 5761,
      "RelSeries": 5762,
      "Rie": 5763,
      "z1": 5764,
      "inc": 5765,
      "1312622": 5766,
      "Riemann": 5767,
      "differentiable": 5768,
      "iσ": 5769,
      "typein": 5770,
      "LocallyCompactSpace": 5771,
      "587": 5772,
      "StandardBorelSpace": 5773,
      "FinMeas": 5774,
      "Predicate": 5775,
      "399": 5776,
      "innerSL": 5777,
      "Specialization": 5778,
      "odd": 5779,
      "toInhabited": 5780,
      "HasAntidiagonal": 5781,
      "SeminormFamily": 5782,
      "cave": 5783,
      "mentar": 5784,
      "caveOn": 5785,
      "453": 5786,
      "pan": 5787,
      "angements": 5788,
      "StrictOrder": 5789,
      "tangentCone": 5790,
      "wri": 5791,
      "StructureGroupoid": 5792,
      "currySum": 5793,
      "mentary": 5794,
      "Whi": 5795,
      "While": 5796,
      "projection": 5797,
      "otom": 5798,
      "hac": 5799,
      "bson": 5800,
      "Hst": 5801,
      "XY": 5802,
      "290": 5803,
      "Hausdorff": 5804,
      "stoppedValue": 5805,
      "toBilin": 5806,
      "GroupHom": 5807,
      "IsBaseChange": 5808,
      "na": 5809,
      "toMulBot": 5810,
      "159": 5811,
      "infsep": 5812,
      "186": 5813,
      "246": 5814,
      "Sylow": 5815,
      "TotallyDisconnectedSpace": 5816,
      "pansion": 5817,
      "εClosure": 5818,
      "213": 5819,
      "EB": 5820,
      "pointedToTwoP": 5821,
      "pointedToTwoPSnd": 5822,
      "PiFork": 5823,
      "stalkMap": 5824,
      "Sep": 5825,
      "toContinuousLinearEquiv": 5826,
      "forgetTo": 5827,
      "ApplicativeTransformation": 5828,
      "IsExpansion": 5829,
      "IsExpansionOn": 5830,
      "317": 5831,
      "IsPred": 5832,
      "OfElements": 5833,
      "IsLprojection": 5834,
      "eB": 5835,
      "OnFinite": 5836,
      "iCycles": 5837,
      "ValuationRing": 5838,
      "rident": 5839,
      "h𝒢": 5840,
      "212": 5841,
      "nonUnital": 5842,
      "Append": 5843,
      "PreservesFiniteLimits": 5844,
      "imum": 5845,
      "IsSquare": 5846,
      "ification": 5847,
      "Ess": 5848,
      "hinv": 5849,
      "negOfNat": 5850,
      "minimum": 5851,
      "Eigenspace": 5852,
      "chainBot": 5853,
      "220": 5854,
      "HasFiniteIntegral": 5855,
      "mkPiAlgebra": 5856,
      "Cofiber": 5857,
      "mulAntidiagonal": 5858,
      "objD": 5859,
      "InfCat": 5860,
      "minFac": 5861,
      "SemilatInfCat": 5862,
      "Aᵀᵀ": 5863,
      "monoidOf": 5864,
      "weightedDegree": 5865,
      "toWeakDual": 5866,
      "HasInvolutive": 5867,
      "444623": 5868,
      "444626": 5869,
      "447057": 5870,
      "447060": 5871,
      "HasInvolutiveReverse": 5872,
      "nvar0ᶜ": 5873,
      "Integration": 5874,
      "Params": 5875,
      "ProperSpace": 5876,
      "IntegrationParams": 5877,
      "Modular": 5878,
      "hsymm": 5879,
      "addAntidiagonal": 5880,
      "ToHomotopyCategory": 5881,
      "DerivedToHomotopyCategory": 5882,
      "mi": 5883,
      "CanonicallyLinearOrderedAddCommMonoid": 5884,
      "IsInv": 5885,
      "370": 5886,
      "same": 5887,
      "CoprodI": 5888,
      "dropFun": 5889,
      "hxS": 5890,
      "instBialgebra": 5891,
      "zpowersHom": 5892,
      "Multicospan": 5893,
      "MulticospanIndex": 5894,
      "PDF": 5895,
      "idates": 5896,
      "Inseparable": 5897,
      "RingSeminorm": 5898,
      "WithLawson": 5899,
      "NonUnitalSubringClass": 5900,
      "rwitzZetaEven": 5901,
      "270": 5902,
      "Factorisation": 5903,
      "ᵇᵃ": 5904,
      "PreservesFiniteColimits": 5905,
      "217": 5906,
      "monic": 5907,
      "356": 5908,
      "Centralizer": 5909,
      "IsOfFinOrder": 5910,
      "memPartition": 5911,
      "αᵒᵖ": 5912,
      "quotientCentralizer": 5913,
      "quotientCentralizerEmbedding": 5914,
      "GRing": 5915,
      "fab": 5916,
      "PiTensorProduct": 5917,
      "toMetricSpace": 5918,
      "dense": 5919,
      "tangentBundleCore": 5920,
      "Xor": 5921,
      "sort": 5922,
      "hreg": 5923,
      "HasHomotopy": 5924,
      "entry": 5925,
      "SumPUnit": 5926,
      "AdicCauchySequence": 5927,
      "HasHomotopyCofiber": 5928,
      "289": 5929,
      "ParallelFamily": 5930,
      "rootSet": 5931,
      "WalkingParallelFamily": 5932,
      "Sections": 5933,
      "cting": 5934,
      "Unbounded": 5935,
      "MeromorphicAt": 5936,
      "310": 5937,
      "320": 5938,
      "338": 5939,
      "orderLHom": 5940,
      "Multispan": 5941,
      "ofEquivFun": 5942,
      "MultispanIndex": 5943,
      "Alex": 5944,
      "Dart": 5945,
      "inlₗ": 5946,
      "blimsup": 5947,
      "conjCLE": 5948,
      "killingForm": 5949,
      "235": 5950,
      "Bicone": 5951,
      "alizing": 5952,
      "400": 5953,
      "toWithTop": 5954,
      "FieldEquiv": 5955,
      "piFieldEquiv": 5956,
      "ratCast": 5957,
      "326": 5958,
      "xi": 5959,
      "HomogeneousLocalization": 5960,
      "CommSq": 5961,
      "orbitRel": 5962,
      "generalizing": 5963,
      "Circular": 5964,
      "vDiscrete": 5965,
      "rovDiscrete": 5966,
      "convergent": 5967,
      "androvDiscrete": 5968,
      "AlexandrovDiscrete": 5969,
      "uᶜ": 5970,
      "DistribClass": 5971,
      "olem": 5972,
      "238": 5973,
      "negY": 5974,
      "evaluation": 5975,
      "Valued": 5976,
      "reCLM": 5977,
      "reverseAux": 5978,
      "absNorm": 5979,
      "OfSurjective": 5980,
      "Go": 5981,
      "𝒅ₕ": 5982,
      "hcb": 5983,
      "299": 5984,
      "EquivProdFinsupp": 5985,
      "ds": 5986,
      "ess": 5987,
      "249": 5988,
      "color": 5989,
      "Good": 5990,
      "Label": 5991,
      "toMultiplicative": 5992,
      "276": 5993,
      "toIntLinearEquiv": 5994,
      "229": 5995,
      "TransGen": 5996,
      "hτ": 5997,
      "dick": 5998,
      "PUnitSumLex": 5999,
      "HasKernels": 6000,
      "orderIsoPUnitSumLex": 6001,
      "dickson": 6002,
      "₁⁻¹": 6003,
      "Alt": 6004,
      "instOfNatNat": 6005,
      "curry0": 6006,
      "AddSubgroupClass": 6007,
      "SepDegree": 6008,
      "ofRealCLM": 6009,
      "ConcaveOn": 6010,
      "rangeIn": 6011,
      "OfHom": 6012,
      "optionEquivSumPUnit": 6013,
      "IsAtom": 6014,
      "del": 6015,
      "ofIso": 6016,
      "nilFun": 6017,
      "castLE": 6018,
      "merge": 6019,
      "trunc": 6020,
      "sumFinsuppEquivProdFinsupp": 6021,
      "fstIdx": 6022,
      "bilin": 6023,
      "optionCongr": 6024,
      "¬↑↑": 6025,
      "conjLI": 6026,
      "conjLIE": 6027,
      "serv": 6028,
      "dOne": 6029,
      "contractRight": 6030,
      "174": 6031,
      "factorial": 6032,
      "comple": 6033,
      "noncommFold": 6034,
      "contractLeft": 6035,
      "primitive": 6036,
      "GenerateSets": 6037,
      "lib": 6038,
      "div2": 6039,
      "toZNum": 6040,
      "sᶜᶜ": 6041,
      "hba": 6042,
      "IsChain": 6043,
      "105": 6044,
      "277": 6045,
      "OfSet": 6046,
      "368": 6047,
      "360": 6048,
      "injEq": 6049,
      "totalDegree": 6050,
      "sbtw": 6051,
      "CommMon": 6052,
      "connected": 6053,
      "MonoidalPreadditive": 6054,
      "alCalculus": 6055,
      "connectedComponentMk": 6056,
      "cfc": 6057,
      "ContinuousFunctionalCalculus": 6058,
      "IsNat": 6059,
      "SumDistrib": 6060,
      "impli": 6061,
      "conjTranspose": 6062,
      "implies": 6063,
      "eqn": 6064,
      "quadratic": 6065,
      "425": 6066,
      "toMatroid": 6067,
      "edBy": 6068,
      "delta": 6069,
      "completion": 6070,
      "aj": 6071,
      "prodSumDistrib": 6072,
      "imCLM": 6073,
      "IsSeq": 6074,
      "NatOrdinal": 6075,
      "CompleteSublattice": 6076,
      "IndepMatroid": 6077,
      "IsInitial": 6078,
      "sumPi": 6079,
      "EquivProdPi": 6080,
      "Rotate": 6081,
      "sumPiEquivProdPi": 6082,
      "Xᵒᵈ": 6083,
      "toEReal": 6084,
      "ringEquiv": 6085,
      "hnc": 6086,
      "hχ": 6087,
      "OnePoint": 6088,
      "eric": 6089,
      "OfInjective": 6090,
      "plicit": 6091,
      "NBounded": 6092,
      "209": 6093,
      "VonNBounded": 6094,
      "UnitGroup": 6095,
      "↑↑↑↑↑": 6096,
      "torsionBySet": 6097,
      "isometryOfOrthonormal": 6098,
      "OfAdj": 6099,
      "subgraphOfAdj": 6100,
      "nextCoeff": 6101,
      "c1": 6102,
      "compContinuousLinearMapL": 6103,
      "BotEquiv": 6104,
      "toDualBotEquiv": 6105,
      "260": 6106,
      "UniformlyOn": 6107,
      "toUnits": 6108,
      "144": 6109,
      "scanl": 6110,
      "549": 6111,
      "H4": 6112,
      "hip": 6113,
      "powersHom": 6114,
      "mvPolynomialX": 6115,
      "Sups": 6116,
      "rangeIcc": 6117,
      "¬¬¬¬¬¬¬¬¬": 6118,
      "ertedBy": 6119,
      "IsInvertedBy": 6120,
      "IsGener": 6121,
      "prodCongrLeft": 6122,
      "367": 6123,
      "rr": 6124,
      "witt": 6125,
      "quotientEquiv": 6126,
      "lx": 6127,
      "ht2": 6128,
      "nontrivial": 6129,
      "bfamilyOf": 6130,
      "bfamilyOfFamily": 6131,
      "SFinite": 6132,
      "mapMap": 6133,
      "DistEq": 6134,
      "FreeCommRing": 6135,
      "183": 6136,
      "245": 6137,
      "condCount": 6138,
      "hQz": 6139,
      "whiskeringLeft": 6140,
      "Len": 6141,
      "ContDiffOn": 6142,
      "Hs": 6143,
      "Pure": 6144,
      "fG": 6145,
      "286": 6146,
      "Factorial": 6147,
      "tensorLeftTensor": 6148,
      "specialize": 6149,
      "cg": 6150,
      "Valid": 6151,
      "partialSups": 6152,
      "ersal": 6153,
      "continuousWithinAt": 6154,
      "iselect": 6155,
      "WidePushout": 6156,
      "WidePushoutShape": 6157,
      "hnsol": 6158,
      "240": 6159,
      "IsGenericPoint": 6160,
      "complex": 6161,
      "ConnectedComponents": 6162,
      "Ps": 6163,
      "Augment": 6164,
      "fF": 6165,
      "slice": 6166,
      "haar": 6167,
      "hΨ": 6168,
      "yᶜ": 6169,
      "Ev": 6170,
      "az": 6171,
      "rangeSplitting": 6172,
      "216": 6173,
      "toKaroubi": 6174,
      "124": 6175,
      "fbc": 6176,
      "toPEquiv": 6177,
      "subalgebra": 6178,
      "IsInvariant": 6179,
      "348": 6180,
      "PeriodicPt": 6181,
      "germ": 6182,
      "striction": 6183,
      "740": 6184,
      "sigmaFinsuppEquivPiFinsupp": 6185,
      "IsVonNBounded": 6186,
      "piFin": 6187,
      "323": 6188,
      "sht": 6189,
      "lips": 6190,
      "vensht": 6191,
      "venshtein": 6192,
      "leton": 6193,
      "keleton": 6194,
      "CompClosure": 6195,
      "adic": 6196,
      "edgeDensity": 6197,
      "toPartENat": 6198,
      "hyx": 6199,
      "coconeOf": 6200,
      "Skeleton": 6201,
      "Cond": 6202,
      "ε0": 6203,
      "ιMapObj": 6204,
      "Bracket": 6205,
      "Jo": 6206,
      "IsMul": 6207,
      "WithUpperSet": 6208,
      "OfSelf": 6209,
      "finRotate": 6210,
      "reverseOp": 6211,
      "tensorRight": 6212,
      "Fₗᵢ": 6213,
      "lpBCFₗᵢ": 6214,
      "344": 6215,
      "properDivisors": 6216,
      "Nhds": 6217,
      "cess": 6218,
      "isPicardLindelof": 6219,
      "NegZeroClass": 6220,
      "ConditionallyCompleteLinearOrderBot": 6221,
      "Eventually": 6222,
      "addZ": 6223,
      "187": 6224,
      "FinMeasAdditive": 6225,
      "PullbackCone": 6226,
      "supIndep": 6227,
      "269": 6228,
      "StrictConvex": 6229,
      "toPseudoMetricSpace": 6230,
      "associates": 6231,
      "InterFilter": 6232,
      "YoungDiagram": 6233,
      "Aga": 6234,
      "instNN": 6235,
      "jacobson": 6236,
      "testAga": 6237,
      "linearIsometryBoundedOfCompact": 6238,
      "testAgainstNN": 6239,
      "isCompl": 6240,
      "250": 6241,
      "Preserv": 6242,
      "pSide": 6243,
      "OppSide": 6244,
      "CircularPreorder": 6245,
      "invert": 6246,
      "194": 6247,
      "traceForm": 6248,
      "Costar": 6249,
      "Interior": 6250,
      "134": 6251,
      "IsSuccLimit": 6252,
      "restriction": 6253,
      "248": 6254,
      "maximals": 6255,
      "antidiagonalTuple": 6256,
      "lipschitz": 6257,
      "adicCompletion": 6258,
      "lyFaithful": 6259,
      "Sized": 6260,
      "valid": 6261,
      "227": 6262,
      "toGradedObject": 6263,
      "Numeric": 6264,
      "lective": 6265,
      "IsIntegralCurve": 6266,
      "c2": 6267,
      "hone": 6268,
      "n0": 6269,
      "Oplax": 6270,
      "Reflective": 6271,
      "inductionOn": 6272,
      "HasPullbacks": 6273,
      "↑⋯": 6274,
      "InvariantMeasure": 6275,
      "continuousLinearMapAt": 6276,
      "toLocalizationMap": 6277,
      "145": 6278,
      "piFinTwo": 6279,
      "ofGroup": 6280,
      "ToTop": 6281,
      "FaithfulSMul": 6282,
      "hinr": 6283,
      "unfold": 6284,
      "toZero": 6285,
      "zeroSection": 6286,
      "Denom": 6287,
      "lr": 6288,
      "IsPeriodicPt": 6289,
      "198": 6290,
      "378": 6291,
      "HasProd": 6292,
      "287": 6293,
      "WidePullbackShape": 6294,
      "ENorm": 6295,
      "opEquiv": 6296,
      "φst": 6297,
      "Greatest": 6298,
      "ident": 6299,
      "preadditiveCoyoneda": 6300,
      "pf": 6301,
      "huv": 6302,
      "reduce": 6303,
      "yclic": 6304,
      "fz": 6305,
      "IsRightRegular": 6306,
      "quadraticChar": 6307,
      "Cₛ": 6308,
      "Pr": 6309,
      "addX": 6310,
      "WithLowerSet": 6311,
      "toNatLinearEquiv": 6312,
      "Cofix": 6313,
      "toInv": 6314,
      "QuotientZPow": 6315,
      "IB": 6316,
      "unflip": 6317,
      "SMulInvariantMeasure": 6318,
      "equivOfEq": 6319,
      "ix": 6320,
      "minimals": 6321,
      "ortion": 6322,
      "MonoClass": 6323,
      "268": 6324,
      "InitialMonoClass": 6325,
      "PreservesColimit": 6326,
      "sumInl": 6327,
      "upperCrossingTime": 6328,
      "nod": 6329,
      "ndinsert": 6330,
      "coev": 6331,
      "572": 6332,
      "PiMap": 6333,
      "Truncated": 6334,
      "SeparatingLeft": 6335,
      "Thin": 6336,
      "211": 6337,
      "267": 6338,
      "genEigenspace": 6339,
      "CommApplicative": 6340,
      "toOrder": 6341,
      "ModelProd": 6342,
      "conjAe": 6343,
      "HasProducts": 6344,
      "IsSol": 6345,
      "Preserving": 6346,
      "Eqv": 6347,
      "sqrtd": 6348,
      "ModularForm": 6349,
      "nodal": 6350,
      "gu": 6351,
      "ntence": 6352,
      "aForm": 6353,
      "hσ": 6354,
      "Reflect": 6355,
      "areaForm": 6356,
      "toHomotopyEquiv": 6357,
      "Balanced": 6358,
      "TensorAlgebra": 6359,
      "alt": 6360,
      "OfHasFiniteBiproducts": 6361,
      "SelfOfHasFiniteBiproducts": 6362,
      "equivalenceSelfOfHasFiniteBiproducts": 6363,
      "HasPushout": 6364,
      "23093": 6365,
      "primitiveRoots": 6366,
      "PFilter": 6367,
      "Moore": 6368,
      "306": 6369,
      "detAux": 6370,
      "MooreComplex": 6371,
      "366": 6372,
      "productIso": 6373,
      "EnvelGroup": 6374,
      "349": 6375,
      "toOplax": 6376,
      "Primes": 6377,
      "347": 6378,
      "hji": 6379,
      "funLeft": 6380,
      "Pretrivialization": 6381,
      "equivTo": 6382,
      "relIso": 6383,
      "280": 6384,
      "Dvd": 6385,
      "ThinSkeleton": 6386,
      "toThinSkeleton": 6387,
      "↑↑↑↑↑↑": 6388,
      "SameSide": 6389,
      "Ter": 6390,
      "ihn": 6391,
      "ka": 6392,
      "Sentence": 6393,
      "Termin": 6394,
      "254": 6395,
      "FDerivWithinAt": 6396,
      "compHausToTop": 6397,
      "NonPreadditive": 6398,
      "kahler": 6399,
      "NonPreadditiveAbelian": 6400,
      "NonUnitalCommSemiring": 6401,
      "256": 6402,
      "SelfIso": 6403,
      "Comap": 6404,
      "IsImage": 6405,
      "fixedBy": 6406,
      "IndepSets": 6407,
      "279": 6408,
      "296": 6409,
      "mult": 6410,
      "570": 6411,
      "165": 6412,
      "SymmetricRel": 6413,
      "Element": 6414,
      "ofUnits": 6415,
      "NonUnitalNonAssoc": 6416,
      "OneEquiv": 6417,
      "hp0": 6418,
      "pullbackConeOfLeftIso": 6419,
      "MulLin": 6420,
      "IsPartition": 6421,
      "linMulLin": 6422,
      "439": 6423,
      "IsAlg": 6424,
      "inclDesc": 6425,
      "hxU": 6426,
      "renameEquiv": 6427,
      "IsAlt": 6428,
      "otrident": 6429,
      "LeftEquiv": 6430,
      "monadMap": 6431,
      "canonicalEmbedding": 6432,
      "normalizeObj": 6433,
      "continuousMultilinearCurryLeftEquiv": 6434,
      "339": 6435,
      "SmoothVectorBundle": 6436,
      "HasWidePullback": 6437,
      "hor": 6438,
      "circleMap": 6439,
      "splitFun": 6440,
      "Germ": 6441,
      "Kˣ": 6442,
      "instTopologicalSpace": 6443,
      "toFiniteMeasure": 6444,
      "135": 6445,
      "IsCountablyGenerated": 6446,
      "whiskerRightIso": 6447,
      "toGroup": 6448,
      "had": 6449,
      "vari": 6450,
      "finsuppUnique": 6451,
      "toRightMovesNeg": 6452,
      "TruncatedWittVector": 6453,
      "DiscreteValuationRing": 6454,
      "LaxMonoidalFunctor": 6455,
      "rcf": 6456,
      "irred": 6457,
      "176": 6458,
      "177": 6459,
      "bool": 6460,
      "first": 6461,
      "First": 6462,
      "toPartialOrder": 6463,
      "SmoothPartitionOfUnity": 6464,
      "toSignedMeasure": 6465,
      "mulEquiv": 6466,
      "IsoPi": 6467,
      "discr": 6468,
      "Multicofork": 6469,
      "Perfection": 6470,
      "nection": 6471,
      "Connection": 6472,
      "addCommGroup": 6473,
      "PosSMul": 6474,
      "zeroIsoTerminal": 6475,
      "558": 6476,
      "307": 6477,
      "GaloisConnection": 6478,
      "optionSubtypeNe": 6479,
      "IsSolvable": 6480,
      "→◃": 6481,
      "coeMonoidHom": 6482,
      "openSegment": 6483,
      "centroidWeights": 6484,
      "ofVectorSpace": 6485,
      "XSelf": 6486,
      "natSepDegree": 6487,
      "inducedOrderRingIso": 6488,
      "padicValNat": 6489,
      "SigmaCofork": 6490,
      "508": 6491,
      "Frontier": 6492,
      "DirectLimit": 6493,
      "stere": 6494,
      "nvar11": 6495,
      "ofSigmaCofork": 6496,
      "fullyFaithful": 6497,
      "WeakSpace": 6498,
      "stereo": 6499,
      "guard": 6500,
      "QuotSMul": 6501,
      "TensorHomMap": 6502,
      "312": 6503,
      "post": 6504,
      "Pts": 6505,
      "toPath": 6506,
      "sumElim": 6507,
      "257": 6508,
      "LawfulMonad": 6509,
      "countablePartition": 6510,
      "periodicPts": 6511,
      "ytic": 6512,
      "alytic": 6513,
      "Objects": 6514,
      "locality": 6515,
      "HasDerivAtFilter": 6516,
      "kl": 6517,
      "ManyOneEquiv": 6518,
      "arsinh": 6519,
      "coprime": 6520,
      "Derangements": 6521,
      "numDerangements": 6522,
      "ordinate": 6523,
      "412": 6524,
      "irreducible": 6525,
      "573": 6526,
      "Numbers": 6527,
      "DList": 6528,
      "uniformSpace": 6529,
      "QuotMk": 6530,
      "equivMapOfInjective": 6531,
      "Comonad": 6532,
      "pbind": 6533,
      "HomEquiv": 6534,
      "309": 6535,
      "¬¬¬¬↑": 6536,
      "Full": 6537,
      "Iden": 6538,
      "Filtered": 6539,
      "Identi": 6540,
      "Bim": 6541,
      "toBot": 6542,
      "irr": 6543,
      "559": 6544,
      "mkOfDistEq": 6545,
      "Tar": 6546,
      "cp": 6547,
      "HasCoequalizer": 6548,
      "inducedMap": 6549,
      "IsPGroup": 6550,
      "193006": 6551,
      "Target": 6552,
      "◃⁻¹": 6553,
      "AddGroupNorm": 6554,
      "NonarchAddGroupNorm": 6555,
      "mU": 6556,
      "179": 6557,
      "422": 6558,
      "R1Space": 6559,
      "z2": 6560,
      "toMonoidalCategoryStruct": 6561,
      "Nonzero": 6562,
      "interedges": 6563,
      "↑↑↑↑↑↑↑↑↑↑↑↑↑↑↑↑↑↑↑↑↑↑↑↑": 6564,
      "639": 6565,
      "Subordinate": 6566,
      "subsem": 6567,
      "updateColumn": 6568,
      "toCol": 6569,
      "AddAut": 6570,
      "chooseBasis": 6571,
      "umns": 6572,
      "toColumns": 6573,
      "345": 6574,
      "hp1": 6575,
      "relindex": 6576,
      "extendDomain": 6577,
      "CanonicallyOrderedCommMonoid": 6578,
      "239": 6579,
      "StrongEpi": 6580,
      "Symmetry": 6581,
      "stoc": 6582,
      "enstoc": 6583,
      "1290": 6584,
      "IsOpenMap": 6585,
      "sumComm": 6586,
      "enstock": 6587,
      "219": 6588,
      "toWeierstrassCurve": 6589,
      "468": 6590,
      "otomous": 6591,
      "types": 6592,
      "337": 6593,
      "rmap": 6594,
      "toUnitHom": 6595,
      "ToFun": 6596,
      "FreeAddMonoid": 6597,
      "PreLp": 6598,
      "transition": 6599,
      "transitionMap": 6600,
      "clog": 6601,
      "uβ": 6602,
      "opAddEquiv": 6603,
      "389": 6604,
      "SeparatingRight": 6605,
      "compDer": 6606,
      "singleObjXSelf": 6607,
      "ulated": 6608,
      "IsLocally": 6609,
      "addCommMonoid": 6610,
      "fx": 6611,
      "sigmaEquivProd": 6612,
      "OfFraction": 6613,
      "CalculusOfFraction": 6614,
      "CalculusOfFractions": 6615,
      "EquivList": 6616,
      "Reduct": 6617,
      "pathEquivList": 6618,
      "HasImageMaps": 6619,
      "¬∏": 6620,
      "MeasurableEmbedding": 6621,
      "mn": 6622,
      "FiniteProducts": 6623,
      "frobeniusEquiv": 6624,
      "OfIsTrivial": 6625,
      "toNonUnitalSubring": 6626,
      "whiskerLeftIso": 6627,
      "continuousMultilinearCurryFin": 6628,
      "LequivOfIsTrivial": 6629,
      "rx": 6630,
      "OfIsLocalization": 6631,
      "traction": 6632,
      "247": 6633,
      "extendScalarsOfIsLocalization": 6634,
      "HasTotal": 6635,
      "OrCountablyGenerated": 6636,
      "linearYoneda": 6637,
      "560": 6638,
      "scalar": 6639,
      "homQuotientZPow": 6640,
      "↑↑⊤": 6641,
      "homQuotientZPowOfHom": 6642,
      "think": 6643,
      "continuousMap": 6644,
      "308": 6645,
      "uα": 6646,
      "CountableOrCountablyGenerated": 6647,
      "restrictScalarsIsometry": 6648,
      "Am": 6649,
      "ContT": 6650,
      "idealRange": 6651,
      "QuasiIso": 6652,
      "sz": 6653,
      "460": 6654,
      "small": 6655,
      "cplt": 6656,
      "316": 6657,
      "FamilyOfElements": 6658,
      "matches": 6659,
      "ᵒᶠ": 6660,
      "ilingCoeff": 6661,
      "trailingCoeff": 6662,
      "IsPushout": 6663,
      "weightedSMul": 6664,
      "nFiniteProducts": 6665,
      "Chose": 6666,
      "CompactOpens": 6667,
      "ChosenFiniteProducts": 6668,
      "ired": 6669,
      "unpa": 6670,
      "ersion": 6671,
      "295": 6672,
      "coyonedaEquiv": 6673,
      "HasLeftCalculusOfFractions": 6674,
      "unpaired": 6675,
      "hlt": 6676,
      "flipₗᵢ": 6677,
      "Ver": 6678,
      "embeddings": 6679,
      "negAdd": 6680,
      "315": 6681,
      "ETransform": 6682,
      "iget": 6683,
      "list": 6684,
      "inates": 6685,
      "Nonneg": 6686,
      "259": 6687,
      "Coordinates": 6688,
      "340": 6689,
      "toTwoPointing": 6690,
      "surable": 6691,
      "negAddY": 6692,
      "Commen": 6693,
      "continuantsAux": 6694,
      "Commensurable": 6695,
      "inCoordinates": 6696,
      "maxTrivSubmodule": 6697,
      "normed": 6698,
      "uγ": 6699,
      "MeasurePreserving": 6700,
      "trailingDegree": 6701,
      "Ji": 6702,
      "isRight": 6703,
      "triang": 6704,
      "Henstock": 6705,
      "HasRank": 6706,
      "congrAr": 6707,
      "Nullity": 6708,
      "HasRankNullity": 6709,
      "congrArg": 6710,
      "bung": 6711,
      "uss": 6712,
      "chie": 6713,
      "verschie": 6714,
      "typesGrothendieckTopology": 6715,
      "verschiebung": 6716,
      "Pretriang": 6717,
      "powOrderIso": 6718,
      "MonoidalClosed": 6719,
      "gauss": 6720,
      "zpowersMulHom": 6721,
      "circumcenter": 6722,
      "Pretriangulated": 6723,
      "Cus": 6724,
      "cd": 6725,
      "fer": 6726,
      "pForm": 6727,
      "verage": 6728,
      "ordConnectedComponent": 6729,
      "CuspForm": 6730,
      "tX": 6731,
      "322": 6732,
      "523": 6733,
      "ιMap": 6734,
      "278": 6735,
      "disjointed": 6736,
      "HasFiniteProducts": 6737,
      "finsetCongr": 6738,
      "Universal": 6739,
      "IsTerminal": 6740,
      "699": 6741,
      "InvolutiveNeg": 6742,
      "toDistribMulActionHom": 6743,
      "equivToUnitHom": 6744,
      "takeWhile": 6745,
      "tY": 6746,
      "tZ": 6747,
      "itute": 6748,
      "toContinuousAffineMap": 6749,
      "447": 6750,
      "397": 6751,
      "substitute": 6752,
      "ShiftIso": 6753,
      "dZero": 6754,
      "asModule": 6755,
      "tropOrderIso": 6756,
      "TransversalPair": 6757,
      "HAdd": 6758,
      "ht1": 6759,
      "OrderRingHom": 6760,
      "transfer": 6761,
      "partialHomeomorph": 6762,
      "359": 6763,
      "PU": 6764,
      "IsSimple": 6765,
      "UniformEquiv": 6766,
      "nonzero": 6767,
      "2288": 6768,
      "540": 6769,
      "k1": 6770,
      "HNN": 6771,
      "bl": 6772,
      "ρV": 6773,
      "Analytic": 6774,
      "HNNExtension": 6775,
      "μs": 6776,
      "principalUnitGroup": 6777,
      "toProdMulOpposite": 6778,
      "Elementary": 6779,
      "420": 6780,
      "gl": 6781,
      "690": 6782,
      "minpolyDiv": 6783,
      "msU": 6784,
      "oreDenom": 6785,
      "compContinuousMultilinearMapL": 6786,
      "arr": 6787,
      "BinaryBiproduct": 6788,
      "null": 6789,
      "asIso": 6790,
      "interpol": 6791,
      "interpolate": 6792,
      "ULiftHom": 6793,
      "ofFreeGroup": 6794,
      "411": 6795,
      "CommGroupCat": 6796,
      "Fractional": 6797,
      "lable": 6798,
      "onen": 6799,
      "SMulPos": 6800,
      "TypesTo": 6801,
      "OfTypesTo": 6802,
      "sheafOfTypesTo": 6803,
      "SeparableSpace": 6804,
      "sheafOfTypesToPresheaf": 6805,
      "LECancel": 6806,
      "hbdd": 6807,
      "298": 6808,
      "LECancellable": 6809,
      "aᶜᶜ": 6810,
      "SmoothBumpCovering": 6811,
      "withTopCongr": 6812,
      "compLeftContinuous": 6813,
      "428": 6814,
      "toZMod": 6815,
      "h2φ": 6816,
      "restrictScalarsId": 6817,
      "isBoundedOrder": 6818,
      "ofNNReal": 6819,
      "singletonMulHom": 6820,
      "eqOnSource": 6821,
      "426": 6822,
      "ιMapBifunctor": 6823,
      "EquivSections": 6824,
      "posed": 6825,
      "RelPrime": 6826,
      "319": 6827,
      "cyclesIso": 6828,
      "newLast": 6829,
      "ZeroIso": 6830,
      "InvSeq": 6831,
      "utter": 6832,
      "rescale": 6833,
      "destutter": 6834,
      "ns": 6835,
      "tical": 6836,
      "WeakFEPair": 6837,
      "Trich": 6838,
      "tanh": 6839,
      "ofScientific": 6840,
      "629": 6841,
      "polarBilin": 6842,
      "sections": 6843,
      "lhom": 6844,
      "¬⋯": 6845,
      "pect": 6846,
      "418": 6847,
      "ψtr": 6848,
      "ties": 6849,
      "IsPath": 6850,
      "Identities": 6851,
      "halt": 6852,
      "toShrinkHoms": 6853,
      "conta": 6854,
      "urren": 6855,
      "TensorFinsupp": 6856,
      "fromShrinkHoms": 6857,
      "finsuppTensorFinsupp": 6858,
      "contained": 6859,
      "urrence": 6860,
      "Bᵐᵒᵖ": 6861,
      "rl": 6862,
      "205": 6863,
      "SplitEpi": 6864,
      "WithConstants": 6865,
      "comapSubmodule": 6866,
      "lhomWithConstants": 6867,
      "zable": 6868,
      "trizable": 6869,
      "hfv": 6870,
      "says": 6871,
      "350": 6872,
      "Evaluation": 6873,
      "Lists": 6874,
      "toOrderIso": 6875,
      "orth": 6876,
      "IsSpectralMap": 6877,
      "hAdd": 6878,
      "equivCongr": 6879,
      "equivBool": 6880,
      "HasOrthogonal": 6881,
      "einfsep": 6882,
      "IsRelPrime": 6883,
      "ColimitCocone": 6884,
      "Coboundaries": 6885,
      "lflip": 6886,
      "innerₛₗ": 6887,
      "IsPredLimit": 6888,
      "FirstCountableTopology": 6889,
      "Singular": 6890,
      "opAlgEquiv": 6891,
      "IsFractional": 6892,
      "zeroHom": 6893,
      "utually": 6894,
      "orthonormal": 6895,
      "utuallySingular": 6896,
      "lcomp": 6897,
      "iringClosure": 6898,
      "any": 6899,
      "LocallyFiniteMeasure": 6900,
      "Forall": 6901,
      "sigmaFinsuppAddEquiv": 6902,
      "subsemiringClosure": 6903,
      "toOfNat1": 6904,
      "tensorRightTensor": 6905,
      "sigmaFinsuppAddEquivPiFinsupp": 6906,
      "fe": 6907,
      "207": 6908,
      "377": 6909,
      "nthLe": 6910,
      "enumFrom": 6911,
      "condexpKernel": 6912,
      "330": 6913,
      "fS": 6914,
      "Recurrence": 6915,
      "IsLocallyFiniteMeasure": 6916,
      "tinian": 6917,
      "toProdHom": 6918,
      "Artinian": 6919,
      "trizableSpace": 6920,
      "TM": 6921,
      "Whisker": 6922,
      "vertical": 6923,
      "isLowerSet": 6924,
      "e2": 6925,
      "xn": 6926,
      "addHaar": 6927,
      "dualRestrict": 6928,
      "Resolutions": 6929,
      "SeriesUpTo": 6930,
      "curryRight": 6931,
      "conjAut": 6932,
      "hqd": 6933,
      "TaylorSeriesUpTo": 6934,
      "induceHom": 6935,
      "ExceptT": 6936,
      "IsStrictOrder": 6937,
      "singletonMonoidHom": 6938,
      "inits": 6939,
      "toDiv": 6940,
      "mapEmbedding": 6941,
      "DifferentialObject": 6942,
      "324": 6943,
      "ConGen": 6944,
      "MetrizableSpace": 6945,
      "380": 6946,
      "hasFDerivWithinAt": 6947,
      "ULiftable": 6948,
      "convexBody": 6949,
      "kernelSubobjectMap": 6950,
      "convexBodySum": 6951,
      "stream": 6952,
      "RightCancelMonoid": 6953,
      "toLeftCancelMonoid": 6954,
      "inversion": 6955,
      "Circumcenter": 6956,
      "toNeg": 6957,
      "FinLinOrd": 6958,
      "NonemptyFinLinOrd": 6959,
      "binaryProductLimitCone": 6960,
      "LequivDFinsupp": 6961,
      "328": 6962,
      "toSubMulAction": 6963,
      "Orbit": 6964,
      "OnWith": 6965,
      "MonoFactorisation": 6966,
      "IsArtinian": 6967,
      "SeminormedCommRing": 6968,
      "BCNN": 6969,
      "toWeakDualBCNN": 6970,
      "opNorm": 6971,
      "isSheaf": 6972,
      "periodicOrbit": 6973,
      "TotallyDisconnected": 6974,
      "355": 6975,
      "430": 6976,
      "deleteVer": 6977,
      "finsuppLequivDFinsupp": 6978,
      "setToL1": 6979,
      "deleteVerts": 6980,
      "e1": 6981,
      "₊⁻¹": 6982,
      "supDegree": 6983,
      "mkContinuous": 6984,
      "CountableInterFilter": 6985,
      "reApply": 6986,
      "asBoolAlg": 6987,
      "InnerSelf": 6988,
      "singularPart": 6989,
      "reApplyInnerSelf": 6990,
      "Slice": 6991,
      "cross": 6992,
      "CompleteSemilatticeInf": 6993,
      "FunctorCategory": 6994,
      "Else": 6995,
      "Bin": 6996,
      "trident": 6997,
      "ZeroCochain": 6998,
      "zipRight": 6999,
      "eo": 7000,
      "390": 7001,
      "powersMulHom": 7002,
      "completeGraph": 7003,
      "Next": 7004,
      "mutuallySingular": 7005,
      "toGLPos": 7006,
      "isAlgebra": 7007,
      "WithCircumcenter": 7008,
      "tensorProduct": 7009,
      "529": 7010,
      "σₙ": 7011,
      "imLm": 7012,
      "ContinuousMonoidHom": 7013,
      "sumCompl": 7014,
      "isoWhisker": 7015,
      "toLeftMovesNim": 7016,
      "regular": 7017,
      "AddLECancellable": 7018,
      "associated": 7019,
      "asEmpty": 7020,
      "OrdConnected": 7021,
      "Three": 7022,
      "stronglyMeasurable": 7023,
      "Def": 7024,
      "isRing": 7025,
      "TopologicalBasis": 7026,
      "condKernel": 7027,
      "toAffineIsometryEquiv": 7028,
      "327": 7029,
      "Hu": 7030,
      "toSub": 7031,
      "InfIrred": 7032,
      "rnDerivAux": 7033,
      "mass": 7034,
      "inated": 7035,
      "379": 7036,
      "evalEquiv": 7037,
      "TypeMax": 7038,
      "atom": 7039,
      "483": 7040,
      "equivProdOfSurjective": 7041,
      "equivProdOfSurjectiveOfIsCompl": 7042,
      "cov": 7043,
      "Stabilizer": 7044,
      "equivQuot": 7045,
      "toNonUnitalStarSubalgebra": 7046,
      "equivQuotTensor": 7047,
      "QuotientStabilizer": 7048,
      "569": 7049,
      "IntervalIntegrable": 7050,
      "Elem": 7051,
      "embeddingsMatrix": 7052,
      "237": 7053,
      "sᶜˢ": 7054,
      "398": 7055,
      "multiplesHom": 7056,
      "content": 7057,
      "589": 7058,
      "490": 7059,
      "Trichotomous": 7060,
      "h𝒜": 7061,
      "oneCocycles": 7062,
      "LinearOrderedCommMonoid": 7063,
      "477": 7064,
      "708": 7065,
      "LimZero": 7066,
      "Hconcat": 7067,
      "cotangent": 7068,
      "univᶜ": 7069,
      "skolem": 7070,
      "bex": 7071,
      "132": 7072,
      "Mass": 7073,
      "centerMass": 7074,
      "334": 7075,
      "pg": 7076,
      "NonemptyCompacts": 7077,
      "Stone": 7078,
      "segment": 7079,
      "hdiff": 7080,
      "cut": 7081,
      "386": 7082,
      "withTopWithBot": 7083,
      "graded": 7084,
      "ationOn": 7085,
      "206": 7086,
      "alephIdx": 7087,
      "Hol": 7088,
      "toPiFork": 7089,
      "Process": 7090,
      "StarMemClass": 7091,
      "StrictConvexSpace": 7092,
      "325": 7093,
      "tn": 7094,
      "266": 7095,
      "384": 7096,
      "ConvexBody": 7097,
      "requ": 7098,
      "ently": 7099,
      "Divisor": 7100,
      "basisDivisor": 7101,
      "requently": 7102,
      "583897": 7103,
      "583894": 7104,
      "singletonOneHom": 7105,
      "conjBy": 7106,
      "HasFTaylorSeriesUpTo": 7107,
      "oreNum": 7108,
      "4557": 7109,
      "bes": 7110,
      "gue": 7111,
      "tern": 7112,
      "besgue": 7113,
      "decomp": 7114,
      "maximum": 7115,
      "IsSymmOp": 7116,
      "pairing": 7117,
      "Altern": 7118,
      "truncated": 7119,
      "vecMulVec": 7120,
      "Principal": 7121,
      "Alternative": 7122,
      "Grow": 7123,
      "Coset": 7124,
      "193": 7125,
      "finiteCoproduct": 7126,
      "Era": 7127,
      "IsSplitEpi": 7128,
      "fromOpposite": 7129,
      "599": 7130,
      "uncurryRight": 7131,
      "hαγ": 7132,
      "gradeBy": 7133,
      "cli": 7134,
      "que": 7135,
      "tt": 7136,
      "orSet": 7137,
      "homTensorHomMap": 7138,
      "clique": 7139,
      "TensorSign": 7140,
      "TensorSigns": 7141,
      "Dyn": 7142,
      "kin": 7143,
      "Sorted": 7144,
      "Lebesgue": 7145,
      "Erased": 7146,
      "Dynkin": 7147,
      "LebesgueDecomposition": 7148,
      "DynkinSystem": 7149,
      "OneMemClass": 7150,
      "LeftCommutative": 7151,
      "SigmaHom": 7152,
      "Sti": 7153,
      "AddSubsemigroup": 7154,
      "ofMulEquivOfLocalizations": 7155,
      "host": 7156,
      "528": 7157,
      "sOf": 7158,
      "teIdx": 7159,
      "byteIdx": 7160,
      "large": 7161,
      "sigmaL": 7162,
      "fstHom": 7163,
      "HasWidePushout": 7164,
      "objUp": 7165,
      "Restricts": 7166,
      "stepSet": 7167,
      "509": 7168,
      "objDown": 7169,
      "Ak": 7170,
      "Baz": 7171,
      "i0": 7172,
      "zs": 7173,
      "raBaz": 7174,
      "576": 7175,
      "ziRecurrence": 7176,
      "AkraBaz": 7177,
      "AkraBazziRecurrence": 7178,
      "addConGen": 7179,
      "taylor": 7180,
      "optionEquivRight": 7181,
      "511": 7182,
      "hasSum": 7183,
      "finsetIcc": 7184,
      "hD": 7185,
      "HasCompact": 7186,
      "i1": 7187,
      "zag": 7188,
      "commShiftIso": 7189,
      "igzag": 7190,
      "conGen": 7191,
      "k2": 7192,
      "mulShift": 7193,
      "ToHom": 7194,
      "flipHom": 7195,
      "subtypePermOfFintype": 7196,
      "finRange": 7197,
      "Unitary": 7198,
      "addRight": 7199,
      "ContDiffAt": 7200,
      "Zigzag": 7201,
      "Subtraction": 7202,
      "Gammaℝ": 7203,
      "SubtractionMonoid": 7204,
      "geom": 7205,
      "HomRel": 7206,
      "ofTop": 7207,
      "WithScott": 7208,
      "SubgroupOf": 7209,
      "164": 7210,
      "500": 7211,
      "equivFunOnFinite": 7212,
      "ient": 7213,
      "300": 7214,
      "dualPairing": 7215,
      "297": 7216,
      "withBotCongr": 7217,
      "instNormedAddCommGroup": 7218,
      "toNonUnitalNonAssocSemiring": 7219,
      "toIntCast": 7220,
      "IsTopologicalBasis": 7221,
      "ToType": 7222,
      "469": 7223,
      "inatedFinMeasAdditive": 7224,
      "IsTorsion": 7225,
      "369": 7226,
      "orthonormalBasis": 7227,
      "458": 7228,
      "isTotallyDisconnected": 7229,
      "hfs": 7230,
      "SubsemiringClosure": 7231,
      "161": 7232,
      "domDomCongrₗ": 7233,
      "nonUnitalSubsemiringClosure": 7234,
      "dot": 7235,
      "gp": 7236,
      "orient": 7237,
      "elf": 7238,
      "Shelf": 7239,
      "extendTo": 7240,
      "zipLeft": 7241,
      "nthRoots": 7242,
      "IsAtomic": 7243,
      "Eigenv": 7244,
      "wideSpan": 7245,
      "asBoolRing": 7246,
      "BoundedContinuousFunction": 7247,
      "iag": 7248,
      "substructure": 7249,
      "codiag": 7250,
      "KerTotal": 7251,
      "constants": 7252,
      "quotQuotEquivQuot": 7253,
      "dotProduct": 7254,
      "ghost": 7255,
      "mulETransform": 7256,
      "OrderedCommSemiring": 7257,
      "StieltjesFunction": 7258,
      "orientation": 7259,
      "IM": 7260,
      "Cube": 7261,
      "AddConstMap": 7262,
      "firstDiff": 7263,
      "1ᶜ": 7264,
      "pell": 7265,
      "toBC": 7266,
      "WalkingParallelPairHom": 7267,
      "decompId": 7268,
      "toBCF": 7269,
      "Sna": 7270,
      "Input": 7271,
      "keInput": 7272,
      "intrinsicClosure": 7273,
      "SnakeInput": 7274,
      "₂⁻¹": 7275,
      "NormNum": 7276,
      "Seq1": 7277,
      "464": 7278,
      "bliminf": 7279,
      "hitting": 7280,
      "commRing": 7281,
      "1728": 7282,
      "zmultiplesHom": 7283,
      "bor": 7284,
      "infinite": 7285,
      "arting": 7286,
      "pullbackIso": 7287,
      "artingale": 7288,
      "Size": 7289,
      "676": 7290,
      "tangentConeAt": 7291,
      "enIn": 7292,
      "writt": 7293,
      "writtenIn": 7294,
      "ρW": 7295,
      "cand": 7296,
      "ExtChartAt": 7297,
      "orderEmbeddingToFun": 7298,
      "writtenInExtChartAt": 7299,
      "candidates": 7300,
      "424": 7301,
      "padicValRat": 7302,
      "ffec": 7303,
      "BialgEquiv": 7304,
      "ji": 7305,
      "boundary": 7306,
      "387": 7307,
      "IsInvariantSubring": 7308,
      "437": 7309,
      "sti": 7310,
      "finsetIoo": 7311,
      "mkPiRing": 7312,
      "dar": 7313,
      "epi": 7314,
      "hys": 7315,
      "407": 7316,
      "darts": 7317,
      "EquivFunctor": 7318,
      "contDiff": 7319,
      "ringHom": 7320,
      "embed": 7321,
      "colorClass": 7322,
      "borel": 7323,
      "522": 7324,
      "627": 7325,
      "descFactorial": 7326,
      "binaryProductIso": 7327,
      "cotrident": 7328,
      "toDirectSum": 7329,
      "IsAffine": 7330,
      "sr": 7331,
      "dualLift": 7332,
      "normalizeIso": 7333,
      "SetIndependent": 7334,
      "Along": 7335,
      "piIsoPi": 7336,
      "paralle": 7337,
      "478": 7338,
      "596": 7339,
      "toIntLinearMap": 7340,
      "ofMapBounded": 7341,
      "311": 7342,
      "288": 7343,
      "626": 7344,
      "IsMultiplicative": 7345,
      "IsFiltered": 7346,
      "Fib": 7347,
      "PosMul": 7348,
      "ᵀᵀᵀ": 7349,
      "specObj": 7350,
      "eigenvectorBasis": 7351,
      "510": 7352,
      "lector": 7353,
      "reflector": 7354,
      "ToPGame": 7355,
      "toLeftMovesToPGame": 7356,
      "coeSubmodule": 7357,
      "InitialObjects": 7358,
      "HasStrictInitialObjects": 7359,
      "MonovaryOn": 7360,
      "intNorm": 7361,
      "Atom": 7362,
      "440": 7363,
      "hcd": 7364,
      "388": 7365,
      "charmatrix": 7366,
      "setToFun": 7367,
      "sumInr": 7368,
      "IsPreconnected": 7369,
      "onFinset": 7370,
      "ship": 7371,
      "bracket": 7372,
      "MonoidalPredicate": 7373,
      "Membership": 7374,
      "358": 7375,
      "lepi": 7376,
      "AntivaryOn": 7377,
      "parallelepi": 7378,
      "parallelepiped": 7379,
      "toPGame": 7380,
      "toGlue": 7381,
      "tprodCoeff": 7382,
      "normalizeIsoApp": 7383,
      "frequently": 7384,
      "cant": 7385,
      "DominatedFinMeasAdditive": 7386,
      "Terminates": 7387,
      "gaussian": 7388,
      "pn": 7389,
      "Uncountable": 7390,
      "yLT": 7391,
      "557": 7392,
      "convexBod": 7393,
      "freeOn": 7394,
      "convexBodyLT": 7395,
      "mkDerivation": 7396,
      "ffective": 7397,
      "Var": 7398,
      "ihx": 7399,
      "sing": 7400,
      "SMulRight": 7401,
      "sheafification": 7402,
      "shiftFunctorZero": 7403,
      "toRightMovesNim": 7404,
      "SigmaCompact": 7405,
      "ofFinset": 7406,
      "fstSigmaMap": 7407,
      "integralSum": 7408,
      "896": 7409,
      "toFinite": 7410,
      "toUniformOnFun": 7411,
      "toFinmap": 7412,
      "FreeNonUnitalNonAssoc": 7413,
      "395": 7414,
      "completedHu": 7415,
      "FreeNonUnitalNonAssocAlgebra": 7416,
      "fy": 7417,
      "lsum": 7418,
      "EquivDual": 7419,
      "1269": 7420,
      "550": 7421,
      "787": 7422,
      "leftHomology": 7423,
      "pullbackSymmetry": 7424,
      "TangentBundle": 7425,
      "toRightMovesMul": 7426,
      "addLeftEmbedding": 7427,
      "IsConnected": 7428,
      "summable": 7429,
      "BijOn": 7430,
      "fpowerSeriesBilinear": 7431,
      "swapEquiv": 7432,
      "selfZPow": 7433,
      "648": 7434,
      "second": 7435,
      "linearIsometryEquiv": 7436,
      "QuotientAddGroup": 7437,
      "SMulBracket": 7438,
      "newHead": 7439,
      "SMulBracketCommClass": 7440,
      "IsTransitive": 7441,
      "CliqueFree": 7442,
      "LieEquiv": 7443,
      "forgetToSheafedSpace": 7444,
      "QuotientAction": 7445,
      "And": 7446,
      "HasSubset": 7447,
      "155": 7448,
      "cmpLE": 7449,
      "Grom": 7450,
      "ₐᵢ": 7451,
      "subtypeₐᵢ": 7452,
      "hyz": 7453,
      "AdjointPair": 7454,
      "Tape": 7455,
      "ovHausdorff": 7456,
      "GromovHausdorff": 7457,
      "643": 7458,
      "mkRingHom": 7459,
      "IsFundamental": 7460,
      "Approx": 7461,
      "toZNumNeg": 7462,
      "khor": 7463,
      "yPro": 7464,
      "sndSigmaMap": 7465,
      "ClosureOperator": 7466,
      "restrictScalarsComp": 7467,
      "khorov": 7468,
      "yProkhorov": 7469,
      "riem": 7470,
      "fstPiMap": 7471,
      "homTo": 7472,
      "125": 7473,
      "LEComap": 7474,
      "hvx": 7475,
      "675": 7476,
      "annZeta": 7477,
      "EssImage": 7478,
      "riemannZeta": 7479,
      "459": 7480,
      "E8": 7481,
      "veLebesgueDecomposition": 7482,
      "WithLower": 7483,
      "305": 7484,
      "HaveLebesgueDecomposition": 7485,
      "toLinearIsometry": 7486,
      "CFilter": 7487,
      "EqFun": 7488,
      "497": 7489,
      "AEEqFun": 7490,
      "Bimod": 7491,
      "xa": 7492,
      "toSquare": 7493,
      "pentag": 7494,
      "mand": 7495,
      "FunctorCategoryEquivalence": 7496,
      "toSquareBlock": 7497,
      "pentagon": 7498,
      "IsAdjointPair": 7499,
      "ofElement": 7500,
      "negFunc": 7501,
      "409": 7502,
      "traceMatrix": 7503,
      "f8": 7504,
      "toUniformSpace": 7505,
      "utf8": 7506,
      "ιMapBifunctorMapObj": 7507,
      "318": 7508,
      "436": 7509,
      "snf": 7510,
      "μa": 7511,
      "fromRel": 7512,
      "continuity": 7513,
      "yonedaEquiv": 7514,
      "ExtendScalars": 7515,
      "instLargeCategory": 7516,
      "toSpan": 7517,
      "toSupSet": 7518,
      "edIndicator": 7519,
      "ofFreeMonoid": 7520,
      "thicken": 7521,
      "TendstoUniformlyOn": 7522,
      "thickenedIndicator": 7523,
      "hat": 7524,
      "mapHomotopyCategory": 7525,
      "mulEquivOfLocalizations": 7526,
      "symmL": 7527,
      "solvable": 7528,
      "frac": 7529,
      "functorCategoryMonoidalAdjunction": 7530,
      "primPart": 7531,
      "Lax": 7532,
      "si": 7533,
      "NonUnitalSubalgebraClass": 7534,
      "IsCompactOperator": 7535,
      "13047": 7536,
      "624": 7537,
      "inators": 7538,
      "prodLift": 7539,
      "1750": 7540,
      "expDegree": 7541,
      "discrete": 7542,
      "pushoutDesc": 7543,
      "b0": 7544,
      "toOption": 7545,
      "PseudoMetrizableSpace": 7546,
      "Strip": 7547,
      "597": 7548,
      "mkLabel": 7549,
      "HasWeak": 7550,
      "HasWeakSheafify": 7551,
      "spanExt": 7552,
      "618": 7553,
      "592": 7554,
      "wideCospan": 7555,
      "xor": 7556,
      "leftRes": 7557,
      "13044": 7558,
      "RightDistribClass": 7559,
      "486": 7560,
      "456": 7561,
      "Cant": 7562,
      "toStructuredArrow": 7563,
      "toClopens": 7564,
      "toFiberBundleCore": 7565,
      "133": 7566,
      "topEquiv": 7567,
      "starClosure": 7568,
      "PolyEquiv": 7569,
      "matPolyEquiv": 7570,
      "reflectorAdjunction": 7571,
      "word": 7572,
      "¬¬¬¬¬¬¬¬¬¬": 7573,
      "idealOfSet": 7574,
      "IsIdempotentElem": 7575,
      "1058": 7576,
      "AbsTheory": 7577,
      "ffectiveEpi": 7578,
      "mfderiv": 7579,
      "unitSphere": 7580,
      "dualBasis": 7581,
      "585": 7582,
      "modify": 7583,
      "IsIdempotentComplete": 7584,
      "hsum": 7585,
      "577": 7586,
      "uliftFunctor": 7587,
      "IsAlgClosed": 7588,
      "mkHom": 7589,
      "imageSubobject": 7590,
      "ToUnits": 7591,
      "204": 7592,
      "unitSphereToUnits": 7593,
      "toMulActionHom": 7594,
      "1170": 7595,
      "470": 7596,
      "NC": 7597,
      "Nod": 7598,
      "Multifork": 7599,
      "liftNC": 7600,
      "dimH": 7601,
      "Nodes": 7602,
      "E7": 7603,
      "toNontrivial": 7604,
      "predAbove": 7605,
      "splitMul": 7606,
      "fact": 7607,
      "i2": 7608,
      "Cones": 7609,
      "Zd": 7610,
      "pellZd": 7611,
      "IsSubordinate": 7612,
      "polynomialY": 7613,
      "toSheafify": 7614,
      "mapAcc": 7615,
      "mkComplex": 7616,
      "ofComplex": 7617,
      "exterior": 7618,
      "StarAlgHomClass": 7619,
      "umr": 7620,
      "αᵒᵈᵒᵈ": 7621,
      "HomotopyEquiv": 7622,
      "iterateFrobeniusEquiv": 7623,
      "mapAccumr": 7624,
      "¬￢": 7625,
      "dualSubmodule": 7626,
      "657": 7627,
      "Distribut": 7628,
      "IsoLT": 7629,
      "Functorial": 7630,
      "multifork": 7631,
      "toRelIsoLT": 7632,
      "toLeftMovesAdd": 7633,
      "Distributor": 7634,
      "cram": 7635,
      "ml": 7636,
      "omeg": 7637,
      "tecting": 7638,
      "PiSystem": 7639,
      "580": 7640,
      "673": 7641,
      "compContinuousAlternatingMap": 7642,
      "cramer": 7643,
      "omega": 7644,
      "PiLift": 7645,
      "divInt": 7646,
      "568": 7647,
      "quotientPiLift": 7648,
      "vK": 7649,
      "⊗≫": 7650,
      "HomClass": 7651,
      "Distortion": 7652,
      "uncurryLeft": 7653,
      "toMatrixₛₗ": 7654,
      "twoCocycles": 7655,
      "toNatSubmodule": 7656,
      "tropEquiv": 7657,
      "countablePartitionSet": 7658,
      "candidatesB": 7659,
      "density": 7660,
      "489": 7661,
      "ImInfty": 7662,
      "CauchyFilter": 7663,
      "514": 7664,
      "Jᵒᵖ": 7665,
      "ℓp": 7666,
      "OneI": 7667,
      "CofixA": 7668,
      "yOn": 7669,
      "WithUpper": 7670,
      "conts": 7671,
      "loopyOn": 7672,
      "222": 7673,
      "498": 7674,
      "wordProd": 7675,
      "rices": 7676,
      "Matrices": 7677,
      "479": 7678,
      "Antisymm": 7679,
      "eigenvectorUnitary": 7680,
      "720": 7681,
      "toAlgebra": 7682,
      "ofSubmodule": 7683,
      "101": 7684,
      "lieSpan": 7685,
      "499": 7686,
      "Collection": 7687,
      "pnat": 7688,
      "commute": 7689,
      "applyComposition": 7690,
      "HasWideCoequalizer": 7691,
      "457": 7692,
      "SSet": 7693,
      "OfReflective": 7694,
      "quasi": 7695,
      "Eigenval": 7696,
      "Uniq": 7697,
      "natAdd": 7698,
      "236": 7699,
      "zeroIsoInitial": 7700,
      "pprime": 7701,
      "lightProfinite": 7702,
      "numer": 7703,
      "hurwitzZetaEven": 7704,
      "HasMulticoequalizer": 7705,
      "lightProfiniteToCompHaus": 7706,
      "explicit": 7707,
      "kerase": 7708,
      "Integer": 7709,
      "415": 7710,
      "dlookup": 7711,
      "over": 7712,
      "zI": 7713,
      "Levenshtein": 7714,
      "¬⇑↑": 7715,
      "ofRelIso": 7716,
      "EquivSet": 7717,
      "hps": 7718,
      "700": 7719,
      "yonedaPresheaf": 7720,
      "finsetEquivSet": 7721,
      "explicitCokernel": 7722,
      "ofRelIsoLT": 7723,
      "swapCore": 7724,
      "equivEssImage": 7725,
      "botEquiv": 7726,
      "element": 7727,
      "equivEssImageOfReflective": 7728,
      "gnpow": 7729,
      "sBasis": 7730,
      "raverse": 7731,
      "RingSubgroup": 7732,
      "IsSigmaCompact": 7733,
      "bitraverse": 7734,
      "lpPiLp": 7735,
      "RingSubgroupsBasis": 7736,
      "μb": 7737,
      "⋆⋆": 7738,
      "mulInitial": 7739,
      "ModelType": 7740,
      "314": 7741,
      "suffix": 7742,
      "aut": 7743,
      "184": 7744,
      "fromCoset": 7745,
      "ofLinearMap": 7746,
      "586": 7747,
      "uniformOfFintype": 7748,
      "cb": 7749,
      "hfin": 7750,
      "588": 7751,
      "798": 7752,
      "Foldl": 7753,
      "sInter": 7754,
      "toInfSet": 7755,
      "MeasurableInv": 7756,
      "698": 7757,
      "reLm": 7758,
      "homIso": 7759,
      "WithShift": 7760,
      "karoubi": 7761,
      "fstKernelFork": 7762,
      "removeNone": 7763,
      "sumMap": 7764,
      "αᵃ": 7765,
      "IsLocalHomeomorph": 7766,
      "suffixLevenshtein": 7767,
      "αᵃᵒᵖ": 7768,
      "ProdDistrib": 7769,
      "linearization": 7770,
      "sumProdDistrib": 7771,
      "GradedObjectWithShift": 7772,
      "orthogonalBilin": 7773,
      "ski": 7774,
      "variableChange": 7775,
      "sigmaLcurry": 7776,
      "stack": 7777,
      "ings": 7778,
      "465": 7779,
      "185": 7780,
      "invariants": 7781,
      "xgcd": 7782,
      "ifp": 7783,
      "wlog": 7784,
      "MeasureTheory": 7785,
      "lowerCrossingTime": 7786,
      "2289": 7787,
      "FreeRing": 7788,
      "448": 7789,
      "506": 7790,
      "600": 7791,
      "CDF": 7792,
      "abelian": 7793,
      "output": 7794,
      "asModuleEquiv": 7795,
      "ilure": 7796,
      "467": 7797,
      "permCongr": 7798,
      "failure": 7799,
      "401": 7800,
      "487": 7801,
      "postcompose": 7802,
      "isAdjoinRoot": 7803,
      "689": 7804,
      "677": 7805,
      "revzip": 7806,
      "principalSeg": 7807,
      "mixed": 7808,
      "toNonneg": 7809,
      "UniformInducing": 7810,
      "Memℓp": 7811,
      "566": 7812,
      "997": 7813,
      "continuousMapEval": 7814,
      "336": 7815,
      "wMk": 7816,
      "SetCoe": 7817,
      "derivFamily": 7818,
      "toSigmaCofork": 7819,
      "ofJ": 7820,
      "castEmbedding": 7821,
      "Pseudofunctor": 7822,
      "pureMulHom": 7823,
      "hdeg": 7824,
      "toAddMonoidHomEquiv": 7825,
      "compat": 7826,
      "hasFDerivAt": 7827,
      "aemeasurable": 7828,
      "EquivOfIsCompl": 7829,
      "componentCompl": 7830,
      "ZMOD": 7831,
      "nal": 7832,
      "IsProj": 7833,
      "Internal": 7834,
      "SigmaCompactSpace": 7835,
      "hasDerivAt": 7836,
      "adj2": 7837,
      "IsWeak": 7838,
      "dslope": 7839,
      "derT": 7840,
      "isLeft": 7841,
      "ContinuousDiv": 7842,
      "↑↑↑↑↑↑↑": 7843,
      "ReaderT": 7844,
      "rcomap": 7845,
      "AddLeftCancelMonoid": 7846,
      "IsLeast": 7847,
      "ofInt": 7848,
      "emptySum": 7849,
      "SmoothBump": 7850,
      "MemRange": 7851,
      "476": 7852,
      "limLax": 7853,
      "799": 7854,
      "chainBotCoeff": 7855,
      "SmoothBumpFunction": 7856,
      "subtypeₗᵢ": 7857,
      "largeCategory": 7858,
      "jecti": 7859,
      "466": 7860,
      "zpowGroupHom": 7861,
      "CompatibleSMul": 7862,
      "Fitting": 7863,
      "stPt": 7864,
      "Unop": 7865,
      "symmDiff": 7866,
      "neare": 7867,
      "posFitting": 7868,
      "multiplesAddHom": 7869,
      "nearestPt": 7870,
      "lcurry": 7871,
      "finCongr": 7872,
      "797": 7873,
      "intrinsicInterior": 7874,
      "compLeftContinuousCompact": 7875,
      "posFittingComp": 7876,
      "instEquivLike": 7877,
      "findGreatest": 7878,
      "commutatorMap": 7879,
      "bRiemann": 7880,
      "AddSemigroup": 7881,
      "extendWith": 7882,
      "598": 7883,
      "encodePosNum": 7884,
      "essImage": 7885,
      "sb": 7886,
      "unitization": 7887,
      "toFin": 7888,
      "liftEquiv": 7889,
      "ComponentCompl": 7890,
      "skewAdjointLieSubalgebra": 7891,
      "HasFPowerSeries": 7892,
      "mapPath": 7893,
      "376": 7894,
      "ymp": 7895,
      "ofAlgHom": 7896,
      "480": 7897,
      "LiftRelAux": 7898,
      "IsIntegralCurveOn": 7899,
      "ofVectorSpaceIndex": 7900,
      "EffectiveEpi": 7901,
      "idTransformation": 7902,
      "NormedLattice": 7903,
      "LiftHom": 7904,
      "ticCurve": 7905,
      "lipticCurve": 7906,
      "toSeminormFamily": 7907,
      "EllipticCurve": 7908,
      "NormedLatticeAddCommGroup": 7909,
      "525": 7910,
      "period": 7911,
      "518": 7912,
      "mkAlgHom": 7913,
      "Subpresheaf": 7914,
      "UniformFun": 7915,
      "Cos": 7916,
      "quotientInf": 7917,
      "539": 7918,
      "TypeFunctor": 7919,
      "toBialgEquiv": 7920,
      "ofTypeFunctor": 7921,
      "piCongr": 7922,
      "izationCongr": 7923,
      "abelianizationCongr": 7924,
      "L2": 7925,
      "full": 7926,
      "wton": 7927,
      "Newton": 7928,
      "NewtonIdentities": 7929,
      "divNat": 7930,
      "diagramIso": 7931,
      "denominators": 7932,
      "sheafCompose": 7933,
      "446": 7934,
      "adj1": 7935,
      "polarCoord": 7936,
      "IsAdjoinRoot": 7937,
      "449": 7938,
      "590": 7939,
      "DenseRange": 7940,
      "normalClosure": 7941,
      "toRat": 7942,
      "toFreeSemigroup": 7943,
      "equivProdDFinsupp": 7944,
      "AnalyticAt": 7945,
      "738": 7946,
      "WF": 7947,
      "nvar12": 7948,
      "hx1": 7949,
      "withConstants": 7950,
      "273": 7951,
      "graphic": 7952,
      "Delete": 7953,
      "CauchySeq": 7954,
      "stereographic": 7955,
      "bent": 7956,
      "EquivIso": 7957,
      "763": 7958,
      "Average": 7959,
      "g2": 7960,
      "amard": 7961,
      "hadamard": 7962,
      "Rescale": 7963,
      "IsNoetherianRing": 7964,
      "neZero": 7965,
      "578": 7966,
      "algHomOf": 7967,
      "preadditiveYoneda": 7968,
      "fundamentalDomain": 7969,
      "compContinuousLinearMapLRight": 7970,
      "MapClusterPt": 7971,
      "LawfulBifunctor": 7972,
      "componentComplMk": 7973,
      "MDifferentiable": 7974,
      "PreEnvelGroup": 7975,
      "Byte": 7976,
      "ane0": 7977,
      "mixedEmbedding": 7978,
      "Sbtw": 7979,
      "ppred": 7980,
      "IsWF": 7981,
      "556": 7982,
      "Exponen": 7983,
      "579": 7984,
      "996": 7985,
      "torsionOf": 7986,
      "XYIdeal": 7987,
      "ΓSpec": 7988,
      "ContinuousSup": 7989,
      "normalCore": 7990,
      "πs": 7991,
      "Induction": 7992,
      "Antilipschitz": 7993,
      "compRightL": 7994,
      "toQuiver": 7995,
      "compContinuousMap": 7996,
      "pingTime": 7997,
      "mapAlgHom": 7998,
      "toppingTime": 7999,
      "InfinitePos": 8000,
      "YonedaCollection": 8001,
      "toENNReal": 8002,
      "224": 8003,
      "492": 8004,
      "gaugeRescale": 8005,
      "524": 8006,
      "502": 8007,
      "nnreal": 8008,
      "StrictMonoOn": 8009,
      "spanningCoe": 8010,
      "toStep": 8011,
      "494": 8012,
      "permutationsAux": 8013,
      "Exponentiable": 8014,
      "↑↑⊥": 8015,
      "nonZeroDivisorsLeft": 8016,
      "h𝒢ℋ": 8017,
      "colim": 8018,
      "summand": 8019,
      "554": 8020,
      "ByMonic": 8021,
      "OrderOf": 8022,
      "ToWeakSpace": 8023,
      "algEquivOf": 8024,
      "¬¬¬¬¬¬¬¬¬¬¬": 8025,
      "continuousLinearMapToWeakSpace": 8026,
      "Case": 8027,
      "Zag": 8028,
      "decidable": 8029,
      "enn": 8030,
      "Absorbent": 8031,
      "Quasiregular": 8032,
      "truncateAugment": 8033,
      "kerLiftAlg": 8034,
      "Cases": 8035,
      "she": 8036,
      "ddle": 8037,
      "102": 8038,
      "toDualRight": 8039,
      "polynomialX": 8040,
      "birkhoffAverage": 8041,
      "rangeInr": 8042,
      "hϕ": 8043,
      "HasM": 8044,
      "swapLeft": 8045,
      "mainder": 8046,
      "gradedComm": 8047,
      "g1": 8048,
      "toDelete": 8049,
      "isGood": 8050,
      "leftDerivedToHomotopyCategory": 8051,
      "606": 8052,
      "quasiIso": 8053,
      "toDeleteEdges": 8054,
      "RTensor": 8055,
      "grothendieckTopology": 8056,
      "BlockTriangular": 8057,
      "ofModuleMonoidAlgebra": 8058,
      "313": 8059,
      "IsZ": 8060,
      "preCant": 8061,
      "ofRealAm": 8062,
      "preCantorSet": 8063,
      "IsBlock": 8064,
      "addHom": 8065,
      "153": 8066,
      "CharacterModule": 8067,
      "toPMap": 8068,
      "408": 8069,
      "isoSource": 8070,
      "ValuationDef": 8071,
      "rangeInl": 8072,
      "isoSourceOfSelf": 8073,
      "E6": 8074,
      "toPartitionOfUnity": 8075,
      "uncurry0": 8076,
      "value": 8077,
      "multicospanComp": 8078,
      "HasWideEqualizer": 8079,
      "stieltjesFunction": 8080,
      "TProd": 8081,
      "hκ": 8082,
      "mSemiring": 8083,
      "IdemSemiring": 8084,
      "singletonSubgraph": 8085,
      "Weighted": 8086,
      "lap": 8087,
      "addY": 8088,
      "linearCoyoneda": 8089,
      "asispect": 8090,
      "topObj": 8091,
      "OrdContinuous": 8092,
      "WeightedHomogeneous": 8093,
      "asispectrum": 8094,
      "hcomm": 8095,
      "Stalk": 8096,
      "Bases": 8097,
      "isometryOfInner": 8098,
      "Eᵒᵈ": 8099,
      "hfr": 8100,
      "castHom": 8101,
      "OnSupport": 8102,
      "OfNatIso": 8103,
      "bindOnSupport": 8104,
      "Semicontinuous": 8105,
      "ReflTransGen": 8106,
      "NonzeroSingleton": 8107,
      "toSpanNonzeroSingleton": 8108,
      "toPerm": 8109,
      "IsOrdered": 8110,
      "505": 8111,
      "796": 8112,
      "arrowCongrSL": 8113,
      "vecMulLinear": 8114,
      "dbl": 8115,
      "DualBases": 8116,
      "sumEmpty": 8117,
      "presen": 8118,
      "Hnil": 8119,
      "707": 8120,
      "simpleGraph": 8121,
      "sumLexAssoc": 8122,
      "WOppSide": 8123,
      "IsWeightedHomogeneous": 8124,
      "subtypeVal": 8125,
      "cospanExt": 8126,
      "generator": 8127,
      "omorphism": 8128,
      "rightHomologyMap": 8129,
      "555": 8130,
      "385": 8131,
      "Powered": 8132,
      "WellPowered": 8133,
      "Collinear": 8134,
      "IsAntisymm": 8135,
      "productMap": 8136,
      "RankOne": 8137,
      "IsStoppingTime": 8138,
      "LipschitzOnWith": 8139,
      "intrinsicFrontier": 8140,
      "toENNRealVectorMeasure": 8141,
      "955": 8142,
      "MapReverse": 8143,
      "hjx": 8144,
      "dTo": 8145,
      "AtPrime": 8146,
      "QuotMkₐ": 8147,
      "CommMonCat": 8148,
      "512": 8149,
      "QInfty": 8150,
      "bDistortion": 8151,
      "zJ": 8152,
      "rightDerivedToHomotopyCategory": 8153,
      "toAddSemigroup": 8154,
      "nnratCast": 8155,
      "OrderIsoSet": 8156,
      "finsetOrderIsoSet": 8157,
      "optionEquivLeft": 8158,
      "Equicontinuous": 8159,
      "liftKaehlerDifferential": 8160,
      "pairFunction": 8161,
      "EquivIsPrincipal": 8162,
      "castAddHom": 8163,
      "subfield": 8164,
      "488": 8165,
      "EventuallyEq": 8166,
      "associatesEquivIsPrincipal": 8167,
      "tensorProductTo": 8168,
      "cpow": 8169,
      "BasisIndex": 8170,
      "seq1": 8171,
      "foldrRecOn": 8172,
      "logTaylor": 8173,
      "prodUnique": 8174,
      "pureOneHom": 8175,
      "990": 8176,
      "NonsingularLift": 8177,
      "embedProduct": 8178,
      "omorphisms": 8179,
      "toMvPowerSeries": 8180,
      "approxOn": 8181,
      "quotQuotEquivComm": 8182,
      "completedHurwitzZetaEven": 8183,
      "llin": 8184,
      "mellin": 8185,
      "IsN": 8186,
      "IsTotal": 8187,
      "hrd": 8188,
      "derivation": 8189,
      "OppositeShift": 8190,
      "linearEquivFun": 8191,
      "ThreeCycle": 8192,
      "stein": 8193,
      "EqOne": 8194,
      "coeAddMonoidHom": 8195,
      "IsRightCancelMul": 8196,
      "IsThreeCycle": 8197,
      "685": 8198,
      "UpToIso": 8199,
      "414": 8200,
      "Flip": 8201,
      "cR": 8202,
      "homologyFunctor": 8203,
      "IsLeftCancelMul": 8204,
      "AssocList": 8205,
      "LinearMapTensorProduct": 8206,
      "445": 8207,
      "Symbol": 8208,
      "algHomOfLinearMapTensorProduct": 8209,
      "invFunOn": 8210,
      "112": 8211,
      "subsets": 8212,
      "unitInv": 8213,
      "connectedComponents": 8214,
      "210172": 8215,
      "middle": 8216,
      "homothetyHom": 8217,
      "chainTopCoeff": 8218,
      "iᶜ": 8219,
      "eps": 8220,
      "asAlgebra": 8221,
      "asString": 8222,
      "OrderMonoidWithZeroHom": 8223,
      "toZModSubmodule": 8224,
      "asAlgebraHom": 8225,
      "mkSpanSingleton": 8226,
      "trify": 8227,
      "1926": 8228,
      "Symmetrify": 8229,
      "781": 8230,
      "AddCommGroupWithOne": 8231,
      "pureMonoidHom": 8232,
      "ContMDiffAt": 8233,
      "Ctop": 8234,
      "greatest": 8235,
      "Precomp": 8236,
      "CompleteLinearOrder": 8237,
      "reindexAlgEquiv": 8238,
      "gence": 8239,
      "cokernelIsoOfEq": 8240,
      "toNormed": 8241,
      "IsUn": 8242,
      "Rev": 8243,
      "574": 8244,
      "706": 8245,
      "Blunt": 8246,
      "localTrivAt": 8247,
      "ᘁXᘁ": 8248,
      "toNormedDual": 8249,
      "396": 8250,
      "Bᴴ": 8251,
      "gi": 8252,
      "225": 8253,
      "CenterPow": 8254,
      "Join": 8255,
      "transferCenterPow": 8256,
      "mirr": 8257,
      "toNNRatCast": 8258,
      "104": 8259,
      "vergence": 8260,
      "182": 8261,
      "304": 8262,
      "CanonicallyLinearOrderedCommMonoid": 8263,
      "WeightSpace": 8264,
      "substructureReduct": 8265,
      "mirror": 8266,
      "a2": 8267,
      "toDist": 8268,
      "inrCokernelCofork": 8269,
      "emptyOn": 8270,
      "finSum": 8271,
      "603": 8272,
      "PreservesColimits": 8273,
      "finsetIco": 8274,
      "GenerateMeasurable": 8275,
      "LSeriesSummable": 8276,
      "numerators": 8277,
      "psigmaCongrRight": 8278,
      "xj": 8279,
      "IsClique": 8280,
      "ofExact": 8281,
      "ordered": 8282,
      "OneMonoid": 8283,
      "DivInvOneMonoid": 8284,
      "lookupFinsupp": 8285,
      "crossProduct": 8286,
      "cutMap": 8287,
      "AddAction": 8288,
      "isSymm": 8289,
      "costar": 8290,
      "LinearWeights": 8291,
      "1934": 8292,
      "sqFrom": 8293,
      "274": 8294,
      "IsCosepar": 8295,
      "toOfNat0": 8296,
      "Binom": 8297,
      "connectedComponentsLift": 8298,
      "orElse": 8299,
      "toTopologicalGroup": 8300,
      "idence": 8301,
      "ActionCategory": 8302,
      "evalRingHom": 8303,
      "widePullback": 8304,
      "incidence": 8305,
      "Sin": 8306,
      "toLattice": 8307,
      "toConst": 8308,
      "ecke": 8309,
      "ProdContinuousLinearMap": 8310,
      "common": 8311,
      "hμν": 8312,
      "locallyRingedSpaceAdjunction": 8313,
      "completedSin": 8314,
      "ringEquivCongr": 8315,
      "toConstProdContinuousLinearMap": 8316,
      "completedSinZeta": 8317,
      "termin": 8318,
      "Quand": 8319,
      "toLHom": 8320,
      "QuotKerTotal": 8321,
      "Foldr": 8322,
      "pushoutCoconeOfLeftIso": 8323,
      "extendTo𝕜": 8324,
      "derivationQuotKerTotal": 8325,
      "Quandle": 8326,
      "hif": 8327,
      "Final": 8328,
      "cones": 8329,
      "OnBall": 8330,
      "AdjoinSimple": 8331,
      "input": 8332,
      "orf": 8333,
      "toRatCast": 8334,
      "ndorf": 8335,
      "454": 8336,
      "eckendorf": 8337,
      "Dep": 8338,
      "WSameSide": 8339,
      "IsDe": 8340,
      "ofSubtype": 8341,
      "sheafify": 8342,
      "hnm": 8343,
      "aevalEquiv": 8344,
      "FactorSet": 8345,
      "sizeUpTo": 8346,
      "killingCompl": 8347,
      "AllP": 8348,
      "ilon": 8349,
      "PairSelfAdjoint": 8350,
      "equivOf": 8351,
      "TensorTensor": 8352,
      "VectorAllP": 8353,
      "tensorTensorTensor": 8354,
      "886": 8355,
      "cyclic": 8356,
      "ssubsets": 8357,
      "nextOr": 8358,
      "Paths": 8359,
      "608": 8360,
      "PushoutCocone": 8361,
      "setToL1S": 8362,
      "uctor": 8363,
      "142": 8364,
      "392": 8365,
      "conductor": 8366,
      "homologyπ": 8367,
      "iicsInfHom": 8368,
      "alan": 8369,
      "toWeakFEPair": 8370,
      "tite": 8371,
      "orderEmb": 8372,
      "OnCl": 8373,
      "partite": 8374,
      "lieConj": 8375,
      "ContOnCl": 8376,
      "Eigenvalue": 8377,
      "pseudo": 8378,
      "Projecti": 8379,
      "5068": 8380,
      "sepDegree": 8381,
      "1ᵀ": 8382,
      "TSupport": 8383,
      "rᶜ": 8384,
      "toDiffeomorph": 8385,
      "mulTSupport": 8386,
      "addSubgroupOf": 8387,
      "563": 8388,
      "monotoneUncurry": 8389,
      "H0LequivOfIsTrivial": 8390,
      "orderEmbOfFin": 8391,
      "IsCoatom": 8392,
      "228872": 8393,
      "hmem": 8394,
      "evalLatticeHom": 8395,
      "404": 8396,
      "595": 8397,
      "332": 8398,
      "ᵀᵀᵀᵀ": 8399,
      "sheafedSpace": 8400,
      "convexJoin": 8401,
      "SeparatedNhds": 8402,
      "epsilon": 8403,
      "HD": 8404,
      "fFold": 8405,
      "hint": 8406,
      "mulEquivOf": 8407,
      "cocomplex": 8408,
      "toHomUnits": 8409,
      "✝³⁸": 8410,
      "IsPositive": 8411,
      "enc": 8412,
      "ToModule": 8413,
      "PiToModule": 8414,
      "567": 8415,
      "argmax": 8416,
      "quotQuotEquivQuotSup": 8417,
      "944": 8418,
      "Wf": 8419,
      "commuting": 8420,
      "496": 8421,
      "ofInvolutive": 8422,
      "IsoLimit": 8423,
      "topMap": 8424,
      "162": 8425,
      "2278": 8426,
      "IndepFun": 8427,
      "GaloisObject": 8428,
      "PointedGaloisObject": 8429,
      "rTensorHom": 8430,
      "write": 8431,
      "DvdMonoid": 8432,
      "WfDvdMonoid": 8433,
      "Hb": 8434,
      "instModule": 8435,
      "kernelIsoOfEq": 8436,
      "toMatrixAux": 8437,
      "PreservesLimits": 8438,
      "MulPos": 8439,
      "504": 8440,
      "SMulPosMono": 8441,
      "IsFundamentalDomain": 8442,
      "419": 8443,
      "517": 8444,
      "960": 8445,
      "Gᶜ": 8446,
      "toSubNegMonoid": 8447,
      "toAddEquiv": 8448,
      "ResidueFieldUnits": 8449,
      "HasCompactSupport": 8450,
      "hW": 8451,
      "compCLM": 8452,
      "ofLinear": 8453,
      "FreeAlgebra": 8454,
      "toPowerSeries": 8455,
      "hpos": 8456,
      "sFinite": 8457,
      "spre": 8458,
      "MulSemiringActionHom": 8459,
      "AsSet": 8460,
      "spread": 8461,
      "eb": 8462,
      "cardinal": 8463,
      "364": 8464,
      "Det": 8465,
      "IsOrthoᵢ": 8466,
      "PureTransformation": 8467,
      "QuasiIsoAt": 8468,
      "353": 8469,
      "Enum": 8470,
      "toCoalgebraCat": 8471,
      "CompleteBooleanAlgebra": 8472,
      "1958": 8473,
      "591": 8474,
      "CompositionAsSet": 8475,
      "17537": 8476,
      "subalgebraOf": 8477,
      "toCoalgebraCatIso": 8478,
      "φH": 8479,
      "mkRat": 8480,
      "mkPrecomp": 8481,
      "1110": 8482,
      "Cho": 8483,
      "₀₁": 8484,
      "hprime": 8485,
      "Trail": 8486,
      "⁻¹⁻¹⁻¹⁻¹⁻¹⁻¹": 8487,
      "alternatingGroup": 8488,
      "dProdIndex": 8489,
      "convergents": 8490,
      "toLieSubmodule": 8491,
      "ofMultiset": 8492,
      "essSup": 8493,
      "upperCentralSeries": 8494,
      "InitialSeg": 8495,
      "764": 8496,
      "measurableEquivPi": 8497,
      "MulRight": 8498,
      "aryPoint": 8499,
      "516": 8500,
      "onFormula": 8501,
      "DiffContOnCl": 8502,
      "stract": 8503,
      "NormalizedMooreComplex": 8504,
      "canonicalEquiv": 8505,
      "arMulRight": 8506,
      "Stmt": 8507,
      "leftHomologyMap": 8508,
      "bipartite": 8509,
      "hIJ": 8510,
      "cliqueSet": 8511,
      "shearMulRight": 8512,
      "640": 8513,
      "OpenEmbedding": 8514,
      "imageFactorization": 8515,
      "isLimitEquivSections": 8516,
      "forgetToPresheafedSpace": 8517,
      "zy": 8518,
      "tilt": 8519,
      "multic": 8520,
      "PreGaloisCategory": 8521,
      "ofork": 8522,
      "363": 8523,
      "inverseImage": 8524,
      "skewAdjointPart": 8525,
      "iicInfHom": 8526,
      "IsLocallyInjective": 8527,
      "tilted": 8528,
      "multicofork": 8529,
      "FAE": 8530,
      "TFAE": 8531,
      "hker": 8532,
      "✝³⁹": 8533,
      "IsInternal": 8534,
      "rightHom": 8535,
      "PointUnique": 8536,
      "451": 8537,
      "LowerAdjoint": 8538,
      "condexpInd": 8539,
      "pnatDen": 8540,
      "PointUniqueUpToIso": 8541,
      "¬⅟": 8542,
      "alLinearGroup": 8543,
      "isLocally": 8544,
      "toPreorder": 8545,
      "pliable": 8546,
      "GeneralLinearGroup": 8547,
      "RootPairing": 8548,
      "basisOf": 8549,
      "Extr": 8550,
      "homOfPair": 8551,
[...]
